0
0
0
0
0
0
0
0
0
0
0
0
0
0
0
0
0
0
0
0
0
0
0
0
0
0
0
0
0
0
0
0
0
0
0
0
0
0
0
0
0
0
0
0
0
0
0
0
0
0
0
0
0
0
0
0
0
0
0
0
0
0
0
1
0
1
10
10
11
100
11
10
10
0
0
0
0
0
0
0
0
0
0
0
0
0
0
0
0
0
1
10
11
100
101
111
1000
111
111
100
110
101
1
1
11
10
0
0
0
0
0
0
0
0
0
0
0
0
1
11
101
111
111
101
11
11
11
10
101
0
11111111
10
100
101
101
10
1
0
0
0
0
0
0
0
0
0
10
101
110
110
110
1
11111101
0
1
0
10
0
10
0
0
10
0
0
10
0
1
0
0
0
0
0
0
0
0
10
0
101
10
0
1
10
0
11111111
0
0
1
0
11111111
11111101
11111110
11111011
11111101
11111110
0
0
0
0
0
0
0
11111111
0
1
11111101
0
0
101
11
11111111
0
10
0
1
100
0
1
0
10
0
11111111
11111100
11111111
0
0
0
0
0
0
1
1
0
100
11
101
1000
111
100
0
11111111
11111110
100
0
11111111
1
11111110
10
0
11111100
11111010
0
0
0
0
0
11111111
0
100
1
0
10
0
10
10
11
0
11
0
11111111
11111110
0
0
11111110
0
11111111
11111011
11111010
11111011
0
1
0
0
0
11111110
11111111
10
1
0
0
11111110
0
10
0
1000
111
10
10
11
11111111
0
11111111
0
0
11111100
11111100
11111101
0
0
0
0
0
0
11111111
11111101
11111111
100
11111111
11111111
100
100
101
1100
1101
100
11
11111111
11111111
0
0
0
0
11111101
11111011
11111100
11111110
0
0
0
1
1
11111010
11111001
11111000
0
1
0
11111101
11111111
0
100
11
11111110
11111111
1
11111110
11111100
11111100
11111110
0
11111111
10
0
0
0
0
0
10
0
11111010
11111001
11111001
11110111
11111011
11111000
11110110
11110100
11110010
11110111
11111100
11111100
11
1
0
11111011
11111010
11111111
0
10
1000
10
0
0
0
0
0
0
11111010
11111100
11111011
11110101
11110101
11111000
11111010
11111101
11111000
11111001
11111111
0
100
0
100
1
0
1
100
101
11
10
0
0
0
0
0
0
11111111
0
11111100
11111100
11111110
11111011
0
1
11111000
11111100
11111011
11111111
11111101
0
11
10
100
110
11
0
0
1
0
0
0
0
0
11111111
10
0
11111101
1
0
0
11111110
11111100
11111011
11111011
11111011
11111101
11111110
11111101
0
1000
101
110
10
1
0
10
1
0
0
0
0
0
100
1
0
10
11111111
11111110
0
11111101
11111100
11111001
11110111
11111001
11111110
111
100
111
100
11
100
11
0
10
1
0
0
0
0
0
101
1
1
10
1
0
11111101
11111001
11111111
11111110
11111100
10
101
1000
101
100
11111111
0
0
1
0
0
0
0
0
0
0
1
100
1
100
111
1000
11
100
111
1011
100
11
11111110
11111101
11111111
11111101
0
0
11111111
0
11111111
11111111
11111111
0
0
0
0
0
10
10
1
10
100
1000
1010
1010
10
1000
1001
1
11111111
11111010
11111111
11111111
1
1
11111110
11111111
11111111
11111111
11111110
0
0
0
0
0
10
1
0
0
0
0
100
11
1
11
101
1001
1
11111100
11111101
11111110
10
0
11111011
11111101
0
11111111
11111111
0
0
0
0
0
0
0
0
0
0
0
11111111
0
11111100
0
11111110
11
100
10
11111110
11111010
11111110
0
11111111
11111101
0
11111111
11111111
0
0
0
0
0
0
0
0
1
0
11111011
11111101
11111100
0
11111111
11111111
10
1
0
11111101
11111100
10
0
11111111
11111100
11111100
11111110
0
0
0
0
0
0
0
0
11
10
0
11111111
11111110
11111100
11111111
0
11111110
11111100
10
101
0
11111111
11111101
11111010
11111011
11111011
11111100
0
0
0
0
0
0
0
0
10
11
10
0
0
0
11
100
1000
0
0
0
10
0
0
11111011
11111100
11111100
11111110
11111111
0
0
0
0
0
0
0
0
0
0
0
0
0
0
1
0
11111110
1
0
0
0
11111111
10
1
11111111
11111111
0
0
0
0
0
0
0
0
0
0
0
0
0
0
0
0
0
0
0
0
0
11111111
0
0
0
0
0
0
0
0
0
0
0
0
