0
0
0
0
0
0
0
0
0
0
0
0
0
0
0
0
0
0
0
0
0
0
0
0
0
0
0
0
0
0
0
0
0
0
0
0
0
0
0
0
0
0
0
0
0
0
0
0
0
0
0
0
0
0
0
0
0
0
0
0
0
0
0
0
0
11111111
0
0
11111111
11111111
11111111
11111100
11111100
11111110
0
0
11111111
11111111
0
0
0
0
0
0
0
0
0
0
0
0
0
0
1
0
1
1
11
11
1
0
11111101
0
0
11111110
11111111
11111101
11111110
0
1
10
0
0
0
0
0
0
0
0
0
1
10
11
11
111
111
11
100
100
11111101
0
10
11111101
11111100
11111111
11111110
0
11
1
0
0
0
0
0
0
0
0
1
0
1
0
10
101
1
11
0
0
101
1
1
0
0
11111100
11111111
11111111
0
0
0
0
0
0
0
0
1
11
100
1
0
11111111
11111111
0
0
1
0
11111110
10
11111111
0
1
0
1
0
0
1
1
1
0
0
0
0
10
1
1
1
0
0
0
0
11
1
0
0
11111100
1
1
11111110
1
0
0
1
100
101
110
10
0
0
0
0
0
0
11111111
11111110
11111111
0
11111111
11
0
1
10
11
1
0
1
0
1
110
101
0
100
110
110
1
0
0
0
0
0
11111111
0
0
0
0
11111111
0
1
0
10
0
1
0
10
10
11111110
0
11
11
11
1001
110
1
0
0
0
0
0
11111110
0
11111110
1
1
11111110
10
11111110
11111010
1
0
0
0
100
0
11111111
10
10
1
1
101
110
1
0
0
0
0
11111111
11111111
11111111
0
0
0
11111100
0
0
0
10
1
11111100
11110100
11111111
0
0
11111110
11111011
11111100
11111110
11111111
11
1
0
0
0
0
11111111
0
1
0
11111111
11
1
11
1
0
11
0
11111100
11111000
11111101
11111101
11111111
0
11111011
11111001
11111010
11111010
0
0
0
0
0
0
0
0
10
1
11
10
10
111
1
1
0
11111111
11111100
0
11111111
11111111
0
11111110
0
11111110
11111100
11111011
0
0
0
0
0
0
0
10
0
11111111
0
11111110
0
11111101
11111101
0
0
11111111
11111100
11111000
11111101
11111100
11111111
1
1
1
1
0
0
0
0
0
0
0
0
11
0
11111110
11110110
11110100
11111010
11111011
11111001
1
0
0
11111101
11111010
11111010
11111110
1
10
100
10
11
11
0
0
0
0
0
0
0
10
11111111
11111010
11110001
11110010
11110011
11110111
11110101
11110110
11111011
11111110
11111010
11111011
10
10
101
101
100
110
100
100
0
0
0
0
0
0
1
10
0
11111101
11111000
11111010
11111001
11110010
11110100
11110001
11110100
11110101
11111001
10
1000
111
100
0
0
0
10
11
0
0
0
0
0
0
10
11
100
1
1
0
11111111
1
10
11111100
11111010
11111011
1
111
11
11
100
11111101
100
11
10
11
0
0
0
0
0
0
10
100
100
11
101
101
11
101
110
1010
100
11
11
0
11111110
0
11111101
0
0
11
1
1
0
0
0
0
0
0
10
100
110
11
11
110
11
110
100
110
111
100
0
0
11111101
11111001
11111011
11111101
11111010
11
1
11111111
0
0
0
0
0
0
1
11
11
0
1
100
11
1
10
1
10
100
11
10
1
11111101
11111101
11111101
11111110
0
0
0
0
0
0
0
0
0
0
10
0
0
11111111
1
100
0
10
101
1
10
11
1
10
10
10
0
11111111
0
1
0
0
0
0
0
0
0
1
10
11
11
1
0
1
11
111
11111111
1
1
10
11111110
1
11
0
0
1
0
0
0
0
0
0
0
0
0
1
1
0
0
1
11111111
11111111
0
0
11111110
11111111
100
10
0
10
0
11111111
0
0
0
0
0
0
0
0
0
0
0
0
0
0
0
11111111
11111110
11111110
11111110
11111111
11111101
11111111
11111110
11111110
0
0
1
0
0
0
0
0
0
0
0
0
0
0
0
0
0
0
0
0
11111111
11111110
0
1
0
0
0
0
0
0
0
0
0
0
0
0
0
0
0
0
0
0
0
0
0
0
0
0
0
0
0
0
0
0
0
0
0
0
0
0
0
0
0
0
0
0
0
0
