0
0
0
0
0
0
0
0
0
0
0
0
0
0
0
0
0
0
0
0
0
0
0
0
0
0
0
0
0
0
0
0
0
0
0
0
0
0
0
0
0
0
0
0
0
0
0
0
0
0
0
0
0
0
0
0
0
0
0
0
0
0
0
0
0
1
0
0
1
10
1
1
0
0
0
0
0
0
0
0
0
0
0
0
0
0
0
0
0
0
0
0
11111110
0
0
0
0
0
11
11
10
1
10
1
1
0
0
0
0
0
0
0
0
0
0
0
0
0
0
0
0
10
11111110
11111100
10
11
11
10
110
11
0
100
110
11
0
0
0
0
0
0
0
0
0
0
0
11111110
11111110
11111110
0
1
11111110
11111111
0
10
11111111
11111111
1
100
1
0
0
11111110
0
11111111
11111111
0
0
0
0
0
0
0
11111111
11111100
11111010
11111111
0
1
11111100
11111110
11111111
1
0
11111110
11111111
11111110
11111111
100
1
11111100
0
0
0
0
0
0
0
0
0
11111111
11111110
11111110
11111011
11111101
11111111
11111100
11111011
11111100
11111100
11111101
11111100
10
110
11111101
0
11
11
0
11
101
0
0
0
0
0
0
0
11111111
11111100
11111110
0
11111110
11111111
11111101
11111110
0
11111011
11111111
11111011
0
10
11
101
0
10
0
0
110
10
1
0
0
0
0
0
11111110
11111100
11111110
11111110
11111110
11111110
11111001
11111011
11111101
11111101
11111011
11110110
11111011
11111111
10
11
1
0
10
11
111
1
0
0
11111111
0
0
11111111
11111101
11111100
11111100
11111101
1
11111110
11111100
11111100
11111101
11111110
11111000
11111100
101
1
11111111
100
10
0
0
1
11
0
0
11111111
0
0
0
0
11111111
11111101
0
11111111
11
0
11111101
11111111
11111110
11111111
100
1111
101
0
0
11111111
0
11
100
1
0
11111111
0
0
0
0
0
0
1
11111101
10
11111101
0
0
0
100
100
1010
1001
100
10
0
0
11111101
10
11111101
1
0
11111110
0
0
0
0
0
0
0
10
0
11
0
1
101
101
11
1
111
1
11111110
11
100
0
11111111
0
0
0
11111111
11111101
0
0
0
0
0
0
0
0
10
110
100
0
11111111
1
0
10
1
10
11111111
11111110
0
10
101
11
0
11111110
11111111
11111000
11111100
0
0
0
0
0
0
10
11
1
0
0
0
11
11111111
11111110
0
101
11111110
11111111
0
11111111
11
11
11111111
11111001
0
11111010
11111110
11
10
0
0
0
0
1
10
1
0
11111101
0
0
11111111
11111101
11
10
1
1
111
101
1
0
0
11111001
11111101
11111100
11111110
10
0
0
0
0
0
1
11
0
10
11111011
11111111
0
11111111
11111101
11111011
11111100
11111111
11
111
100
101
0
11111110
11111110
0
11111101
0
0
0
0
0
0
0
0
10
10
10
10
10
0
11111111
0
11111110
10
110
101
101
0
1
11111010
11111100
0
11111100
0
11
0
0
0
0
0
0
0
10
10
101
10
11
1
100
11
1
1100
1101
110
11111111
0
11111101
11111100
11111111
0
11111110
11
10
0
0
0
0
0
0
0
0
10
101
10
11
0
10
110
1100
1001
100
10
11111001
11111110
11111100
11111100
11111111
0
0
1
10
0
0
0
0
0
0
0
11111111
10
11
1
110
111
0
10
100
10
11111100
11111101
11111010
101
0
0
1
10
0
1
0
0
0
0
0
0
0
0
11111111
11111101
0
10
10
100
11
1
11111110
11111111
11111110
11111111
0
0
0
1
0
11
0
1
0
0
0
0
0
0
0
11111110
11111101
11111101
11111100
0
10
101
1
11111101
11111110
11111101
11111100
0
1
11111101
0
10
1
11
0
1
11111111
0
0
0
0
0
0
11111101
11111100
11111101
11111011
11111011
11111100
11111010
11110101
11111100
11111101
11111100
11111100
0
1
0
1
0
0
0
0
0
0
0
0
0
0
0
0
0
0
11111111
11111101
11111101
11111100
11111100
11111011
11111011
11111011
11111011
11111111
11111110
11111011
11111111
11111110
11110101
11111101
0
0
0
0
0
0
0
0
0
0
0
0
0
0
0
0
0
11111111
11111110
11111110
11111101
11111011
11111011
11111011
11111101
11111100
11111100
11111110
11111110
11111111
0
0
0
0
0
0
0
0
0
0
0
0
0
0
0
0
0
0
0
0
0
0
0
0
0
0
0
0
0
0
0
0
0
