0
0
0
0
0
0
0
0
0
0
0
0
0
0
0
0
0
0
0
0
0
0
0
0
0
0
0
0
0
0
0
0
0
0
0
0
0
0
0
0
0
0
0
1
0
0
0
0
0
0
0
0
0
0
0
0
0
0
0
0
0
0
0
0
0
11111111
11111111
11111111
11111111
0
0
11
1
11111110
0
0
0
0
0
0
0
0
0
0
0
0
0
0
0
0
0
0
0
11111110
11111110
0
10
1
0
1
0
11111110
0
11111111
1
0
0
0
0
0
0
0
0
0
0
0
0
0
0
0
11111111
11111101
11111101
11
100
101
1
100
101
1
100
1
100
11
0
11111110
11111111
0
0
0
0
0
0
0
0
11
11
0
11111111
1
11111110
0
1
0
11111111
1
0
0
11111110
10
0
11111111
0
11111110
0
11111111
0
0
0
0
0
0
1
100
11
11111110
100
110
100
0
10
11
0
0
11111101
0
11111100
11111111
1
0
10
1
0
0
0
0
0
0
11111111
1
10
100
11
10
11
1
101
11111110
1
0
0
1
0
1
10
11
1001
0
10
110
1
11111111
0
0
0
0
0
1
11
1000
1000
101
100
101
101
1
0
10
0
11
10
0
110
101
100
10
100
11
1
0
0
0
0
0
0
0
11
1000
100
1
111
10
11111110
10
0
11111111
11111111
11111110
1
11
0
10
1
11
101
100
0
10
1
0
0
0
0
0
1
0
1
1
1
10
10
0
0
101
0
11111111
0
0
0
11
0
0
11
10
11111110
0
0
0
0
0
0
0
11
0
11111111
10
1
10
0
10
10
101
1010
110
10
0
10
11111110
10
1
11
10
1
0
0
0
0
0
0
0
10
0
0
10
0
11111101
10
11111111
10
110
110
101
111
11
100
10
11
1
0
10
11111111
0
0
0
0
0
0
0
0
0
1
11111100
11111111
100
0
10
11111111
100
1000
100
100
100
11
11
1000
1
11111011
11111010
11111111
0
0
0
0
0
0
0
11111110
11111110
11111111
11111011
10
0
1
0
10
100
111
11
1
100
10
0
11111110
11111111
11111011
11111101
11111110
11111111
0
0
0
0
0
0
11111100
11111010
11111101
11111000
11111000
11110101
11111100
11
10
111
111
110
0
10
111
11111100
11111111
11111111
1
11111111
11111110
11111101
0
0
0
0
0
11111111
0
11111011
11111011
11111101
11111101
11111011
11111100
11111100
11111100
0
0
1
11111111
11111101
11111111
11111100
11111011
11111101
11111110
11111101
11111101
11111100
11111110
0
0
0
0
11111111
11111111
11111100
11111100
11111011
11111100
11111101
11110101
11110101
11111000
0
0
0
11111111
11111101
11111101
11111010
11111100
0
0
1
11111110
11111110
0
0
0
0
0
11111111
11111110
11111100
11111111
11111100
11111100
11111101
11110111
11111010
11110110
11111101
11111110
11111111
11111101
1
0
11111110
10
0
11111010
11111100
11111011
11111111
0
0
0
0
0
11111101
11111101
11111101
11111111
11111100
11111111
0
0
11110111
11111010
11111111
11110111
11111010
0
1
11111110
0
11111111
11111111
11111100
11111100
0
0
0
0
0
0
0
11111110
11111111
11111011
11111111
0
11111111
0
11111110
11111110
11111111
0
11111101
11111011
11111001
11111001
11111100
11111110
11111111
11111100
11111101
11111110
11111111
0
0
0
0
0
0
11111111
0
11111110
0
0
11111110
11111010
11111100
11111111
11111111
11111111
11111101
11111101
11111111
11111100
11111110
11111101
11111110
11111100
11111011
11111010
11111110
0
0
0
0
0
0
0
11111111
1
100
11
11111110
11111111
11111111
11111111
11111010
11111101
101
0
11111011
1
11111111
0
11111011
11111001
11111100
11111010
11111110
11111111
0
0
0
0
0
0
0
1
0
11
11111011
11111100
11111111
0
0
0
1
0
10
10
0
11111110
11111111
11111111
11111110
11111100
11111110
11111111
0
0
0
0
0
0
1
10
1
10
10
11111111
100
10
10
11
11
10
100
100
1
100
11
11
0
0
0
0
0
0
0
0
0
0
0
0
0
10
101
1000
111
100
1001
100
1000
1001
111
100
0
10
10
10
10
0
0
0
0
0
0
0
0
0
0
0
0
0
1
11
10
0
11111111
0
10
10
1
0
1
0
0
1
1
0
0
0
0
0
0
0
0
0
0
0
0
0
0
0
0
0
0
0
0
0
0
0
0
0
0
1
1
0
0
0
0
0
