0
0
0
0
0
0
0
0
0
0
0
0
0
0
0
0
0
0
0
0
0
0
0
0
0
0
0
0
0
0
0
0
0
0
0
0
0
0
0
0
11111111
0
0
0
0
0
0
0
0
0
0
0
0
0
0
0
0
0
0
0
0
0
0
11111111
11111111
11111111
11111110
11111110
11111111
0
11111110
11111110
11111101
11111100
11111110
11111110
11111111
11111111
11111111
11111111
0
0
0
0
0
0
0
0
0
0
0
11111111
0
11111110
0
0
1
11111111
11111110
0
11111111
0
1
11111110
11111110
11111101
11111111
11111111
0
1
0
0
0
0
0
0
0
0
11111111
11111110
11111101
11111101
11111101
11111110
11111100
11111101
11111100
0
0
11111110
0
11111011
11111101
1
1
0
0
0
0
0
0
0
0
0
0
0
11111111
0
11111101
11111101
11111010
11111111
11111110
11111100
11111101
11111101
11111010
11111011
0
11111010
11111110
0
0
11111111
0
11111110
11111110
0
0
0
0
0
11111111
0
0
0
11111101
11111110
11111111
0
11111111
11111111
11111111
0
11111110
0
10
11111111
1
0
11111101
11111110
10
0
0
0
0
0
0
1
0
11111100
11111111
11111101
0
11111110
0
11111101
11
1
0
0
101
1
1
100
110
0
11111100
11111110
11111110
11111110
0
0
0
0
0
0
0
11111100
11111110
11111011
11111101
11111110
11111011
0
11111101
11111100
11111101
11
10
0
1
1
0
1
1
11111111
11111110
11111111
0
0
0
0
0
0
11111111
11111110
0
11111111
11111100
11111111
0
100
0
1
10
100
101
11
10
11111100
0
1
11
11111111
1
10
1
1
0
0
0
1
0
11111111
10
11111110
11111111
11
110
111
10
111
11
11
1000
1
0
11
110
101
11
10
100
100
0
0
0
0
0
1
11
100
110
10
111
1
1
11
11111010
0
101
101
0
11
100
0
10
100
10
10
1
1
0
0
0
0
0
1
100
100
1
1
1
11111110
11111110
11111010
11110110
11111101
10
10
10
0
100
11
11111111
11111100
11111101
11111100
11111011
0
0
0
0
0
0
10
101
10
11111111
11111101
11111100
11111110
11111111
11111001
11111011
0
10
0
11111110
1
0
11111110
11111111
11111100
11111101
11111011
11111100
0
0
0
0
0
0
10
100
11111111
11111110
11111010
11111000
11111110
11111110
11111001
11111011
11111110
11111111
11111110
11111110
0
0
11111110
11111110
11111011
11111110
11111100
11111110
11111111
0
0
0
0
0
0
10
11
100
11111110
0
0
11111010
11111100
11111110
11111010
11111011
11111101
0
10
10
11111111
11111111
11111101
11111110
11111111
11111110
11111101
0
0
0
0
0
0
1
110
0
10
1010
110
1
11111110
11111110
11111110
11111100
11111000
11111101
11111011
1
100
10
10
0
11111111
11111110
11111100
11111111
0
0
0
0
11111111
11111111
100
0
1
1001
1011
1010
111
1001
1000
10
11
0
0
1
1
0
11111111
11111111
11111100
11111101
11111110
0
0
0
0
0
11111111
11111101
0
11111111
1
1
11111110
100
1001
111
101
1
1
11111101
100
0
11111100
100
0
11111111
11111010
11111010
0
0
0
0
0
0
11111110
11111101
11111011
11111100
0
1
11111011
11111011
11111100
11111101
0
11111100
11111100
11111110
11111111
0
0
0
0
11111111
11111100
11111101
0
0
0
0
0
0
11111101
11111011
11111011
11111011
11111001
11111101
0
11111100
11111101
11111000
11111100
11111101
11111100
11111110
11111100
0
10
0
11111101
0
0
0
0
0
0
0
0
0
11111110
11111011
11111100
11111010
11111001
11110111
11111110
1
11111100
11111110
11111100
0
1
0
11111110
1
11111101
11111111
11111110
0
0
10
0
0
0
0
0
0
0
11111110
11111110
0
11111110
11111100
0
11111100
11111001
0
11111011
11111111
11111111
11111110
11111111
11111101
11111010
0
0
10
1
10
1
0
0
0
0
0
1
10
10
10
11
10
11111111
11111110
11111100
11111100
11111011
11111010
11111101
11111000
0
11111110
11111110
0
0
0
0
10
0
0
0
0
0
0
10
100
101
11
100
11
0
0
0
11111111
0
0
10
11111101
0
11111110
0
10
0
0
0
0
0
0
0
0
0
0
0
1
10
0
1
101
100
10
100
100
10
0
0
100
0
11111110
10
10
1
0
0
0
0
0
0
0
0
0
0
0
1
1
1
10
11
11
11
10
11
111
100
11
11
10
10
1
1
0
0
0
0
0
0
0
0
0
0
0
0
0
0
0
0
0
0
0
0
0
0
0
0
0
0
0
0
0
0
0
0
0
0
