0
0
0
0
0
0
0
0
0
0
0
0
0
0
0
0
0
0
0
0
0
0
0
0
0
0
0
0
0
0
0
0
0
0
0
0
0
0
0
0
0
0
0
0
0
0
0
0
0
0
0
0
0
0
0
0
0
0
0
0
0
0
0
0
0
0
0
0
0
0
11111111
0
0
10
10
10
1
1
0
0
0
0
0
0
0
0
0
0
0
0
0
0
11111110
11111100
11111110
11111101
11111101
11111100
11111101
11111100
11111100
11111111
1
100
11
10
10
10
0
0
0
0
0
0
0
0
0
0
11111111
11111110
11111100
11111110
11111111
11111111
0
11
100
11
11111110
11111111
11111010
11111110
11111110
0
1
100
10
0
0
0
0
0
0
0
11111111
0
11111110
11111111
0
10
0
1
11111111
0
10
101
0
1
1
0
11111101
0
11
11
11
10
0
0
0
0
0
0
11111101
11111010
11111010
11111100
11111100
11111001
11111001
11111100
0
11111100
11111111
0
11111111
1
0
1
0
1
0
11
10
10
0
0
0
0
0
11111110
11111001
11111001
11111011
11111001
11111101
11111110
0
11111011
11111111
11111110
10
1
10
0
0
11111110
1
0
0
11
110
10
0
0
0
0
0
11111111
11111101
11111110
100
11111101
11111101
11111111
11111000
11110110
11111101
11111100
11111101
0
1
11111110
0
1
11111110
11111111
11111111
101
1000
10
0
0
0
0
0
0
1
10
1
11111011
11111010
11111010
11111011
11111101
11111100
11
100
10
11111111
1
0
11111111
0
0
0
10
110
0
0
0
0
0
0
10
100
100
101
100
100
1100
1111
10010
10010
10010
1001
101
11111111
0
11111101
0
11111110
0
0
110
11
0
0
0
0
0
0
100
1000
1001
1111
10101
11011
11101
11001
1110
1011
110
0
1
1
0
0
10
1
110
11
0
0
11111110
0
0
0
0
0
101
1011
1110
11000
11001
10101
1101
11
1
11111110
11111110
11111100
0
11111110
10
0
10
10
111
101
1
11111111
11111101
0
0
0
0
0
11
1001
1011
1110
1001
0
11111111
11111011
11111010
11111011
11111101
0
10
11111110
10
11
0
0
0
11
1
0
11111110
0
0
0
0
0
1
1
10
0
11110111
11111010
11110101
11111110
11111011
11111101
11111101
11111110
0
0
11
0
0
0
11111011
10
10
1
11111111
0
0
0
0
0
0
11111111
11111011
11111000
11111010
1
11111111
11111111
0
0
11111110
11
11111110
0
11
0
0
0
11111110
1
11111111
11111111
11111110
11111111
0
0
0
0
11111110
11111110
11111011
11111100
11111100
1
11111110
11111110
1
0
11111101
11111101
1
0
0
11111111
11111101
0
11111101
11111110
11111101
11111011
11111011
11111101
0
0
0
11111111
11111101
11111110
0
0
10
10
101
101
10
0
0
11111110
0
0
0
11111100
11111111
110
0
11111101
0
1
11111110
11111111
0
0
0
0
11111100
11111111
0
11111111
0
11111110
11111100
0
0
11111110
11111111
11111110
0
0
11111110
11111111
11111111
0
11111101
11111101
11
0
11111101
0
0
0
0
0
11111111
11111111
10
0
0
11
11111111
11
0
100
11111010
1
11111101
11111110
0
0
0
11111111
11111010
11111101
0
11111111
11111110
0
0
0
0
0
11111110
11111110
11111101
1
0
10
0
11111110
0
101
0
11111101
11111100
1
0
0
0
0
11111111
0
11111111
11111111
0
0
0
0
0
11111111
11111111
11111110
0
0
11111101
11111111
10
11111011
0
11111110
10
11
0
11
1
0
10
10
1
1
11111111
11111110
11111111
0
0
0
0
0
0
11111110
11111100
0
11111101
11111101
11
1
10
0
0
0
0
11111111
11111110
0
11111110
11111101
10
100
0
0
0
0
0
0
0
0
0
11111111
11111101
11111111
11111101
0
11111110
1
0
1
11111101
0
0
11
0
0
0
10
1
1
0
0
0
0
0
0
0
0
11111111
11111101
0
0
11111110
11111011
11111101
0
1
11
0
0
10
0
11111101
1
11
11
0
0
0
0
0
0
0
0
0
0
0
11111110
11111110
11111110
11111110
11111100
11111111
11111111
0
11111110
11111101
0
0
11111110
10
11
10
10
11
1
0
0
0
0
0
0
0
0
0
0
0
0
0
11111111
11111111
11111110
11111110
11111111
11111110
0
0
0
0
0
0
0
0
0
0
0
0
0
0
0
0
0
0
0
0
0
0
0
0
0
0
0
0
0
0
0
0
0
0
0
0
0
0
0
0
0
0
