0
0
0
0
0
0
0
0
0
0
0
0
0
0
0
0
0
0
0
0
0
0
0
0
0
0
0
0
0
0
0
0
0
0
0
0
0
0
0
0
0
0
0
0
0
0
0
0
0
0
0
0
0
0
0
0
0
0
0
0
0
0
0
0
0
1
0
1
1
11111111
0
11111111
11111111
0
0
0
1
1
0
0
0
0
0
0
0
0
0
0
0
0
0
0
11111111
0
0
10
0
0
101
100
11
11
10
1
0
10
10
0
0
0
0
0
0
0
0
0
0
0
0
11111111
11111110
0
1
11
1
11111101
1
11111110
11111100
0
0
1
11111011
11111101
0
1
11111110
0
0
0
0
0
0
0
0
11111110
11111111
11111101
10
1
1
11
0
11111100
11111110
11111100
11111111
11111111
0
11111110
11111110
11111110
11111110
0
0
1
0
0
0
0
0
0
11111111
11111101
11111111
10
0
0
11111111
10
10
1
11111111
100
10
11111100
11111111
100
11111101
1
0
11111110
11111111
0
0
0
0
0
1
11111111
11111111
1
11
0
11111111
10
10
10
1
11
11111110
1
11111100
11111100
11
0
0
0
1
0
10
10
0
0
0
0
1
0
1
11
10
110
11
0
0
11111100
10
10
11111111
11111100
101
111
1
10
100
11111101
1
10
0
11111111
0
0
0
0
10
10
10
100
0
10
0
10
0
11111111
11111111
1
0
10
0
1
100
101
1010
11
11111111
11
11111110
11111111
0
0
0
0
1
1
10
100
11
10
1
101
100
10
11111101
11111101
11111001
11111010
11111010
11111110
10
11111100
10
1
11
0
11111101
11111011
0
0
0
0
0
1
10
11
10
10
0
101
1
11111100
11111100
11111101
11111001
11111011
11111100
11111001
11110101
0
11111110
100
110
11
0
11111110
0
0
0
0
0
10
11
100
11
1
0
1
11111110
0
11111101
11111111
11111001
11111101
11111100
11111110
11111101
0
11
1
101
101
110
0
0
0
0
0
0
0
101
111
110
1
11111111
0
10
11111110
11111101
11111110
11111011
11111101
11111101
11111110
100
0
0
0
1
10
100
0
0
0
0
0
0
11111111
100
111
1000
101
100
10
101
0
0
1
11111101
11111011
0
1
110
10
11111110
0
11111111
11111111
1
11111111
0
0
0
0
0
0
11111110
11
110
1100
111
1010
1001
10
0
0
11111110
11111111
11111101
110
0
0
11111110
11111100
11111111
11111100
1
0
1
0
0
0
0
11111111
11111101
0
10
111
111
10000
10001
1001
1011
1000
11111110
1
11
101
0
1
1
11111100
11111100
11111101
11111110
1
0
0
0
0
0
11111110
11111101
0
1
100
1
110
1100
1010
1001
101
10
11
0
11
101
11111111
11
0
11111111
11111110
11111111
0
0
0
0
0
0
11111100
11111010
11111110
11111110
0
11111010
11111010
11111110
0
10
11
1
100
101
100
100
1
0
0
0
0
0
0
0
0
0
0
0
11111101
11111101
11111100
11111010
11111001
11111001
11111100
11111100
11111000
11111110
11111101
11111111
10
11111110
11
10
1
0
10
10
11111111
11111110
11111111
0
0
0
0
0
0
11111111
11111110
11111001
0
11111010
11111001
11111101
11111110
0
1
11111110
111
11111110
11111111
0
0
0
10
0
11111111
11111101
11111111
0
0
0
0
1
0
1
11111110
11111111
11111111
11111010
0
11111101
0
0
0
11111110
11111110
11
100
11111111
1
0
100
10
10
0
0
0
0
0
0
1
0
11
10
10
100
11111111
0
11
0
100
10
0
11111111
11111111
0
0
11111111
1
0
0
1
1
0
0
0
0
0
0
0
0
0
11
101
0
10
11
11
11111101
1
10
11111101
11111110
11111011
11111100
1
11
100
101
1
0
0
0
0
0
0
0
0
1
11
100
1
0
0
1
110
111
1000
11
11
0
11111111
0
10
10
11
10
0
0
0
0
0
0
0
0
0
1
10
11
10
0
0
101
111
11
11111111
11
110
0
0
11
1
0
0
1
0
0
0
0
0
0
0
0
0
0
0
0
0
1
0
10
11
10
100
10
11111101
11111110
0
0
1
0
0
0
0
0
0
0
0
0
0
0
0
0
0
0
0
0
0
0
0
0
0
0
11111111
0
0
0
0
0
0
0
0
0
0
0
0
