0
0
0
0
0
0
0
0
0
0
0
0
0
0
0
0
0
0
0
0
0
0
0
0
0
0
0
0
0
0
0
0
0
0
0
0
0
0
0
0
0
0
0
0
1
0
0
0
0
0
0
0
0
0
0
0
0
0
0
0
0
0
0
0
11111111
11111111
11111111
11111111
0
10
10
11111110
11111101
11111111
11111111
11111111
11111111
11111111
0
0
0
0
0
0
0
0
0
0
0
0
0
0
0
1
10
11
100
111
110
0
10
100
0
0
0
11111110
11111110
11111110
0
0
0
0
0
0
0
0
0
0
0
0
11
100
110
1
110
1010
110
110
1
0
1
1
1
0
0
11111101
11111110
0
0
0
0
0
0
0
0
0
1
0
0
100
111
10
0
100
10
100
101
0
11
11111111
11
0
11111110
11111101
11111111
0
0
0
0
0
0
0
0
0
0
11111101
11111111
11111111
11
11
100
1010
101
0
0
0
100
1
0
10
0
11111101
11111100
11111110
11111111
11111111
0
0
0
0
11111111
11111110
1
1
0
0
11111111
0
0
0
111
111
1
101
100
101
10
0
0
11111111
11111100
0
11111111
0
0
0
0
0
11111110
11111101
0
0
11111110
11111001
11111010
11111000
11111001
11111011
100
1001
1010
1000
11
1
101
0
0
0
11111010
11111101
0
0
0
0
0
0
11111101
11111011
11111000
11110101
11111000
11110100
11111000
11110011
11110011
11110010
11110111
11111110
101
110
1000
1010
1001
1
1
11111110
11111010
11111100
0
0
0
0
0
0
11111101
11111011
11110110
11110000
11110101
11110001
11110110
11111000
11111001
11111100
11111010
11111101
11
111
1
1
11
111
110
11111011
11111000
11111110
0
0
0
0
1
0
11111101
11111100
11111001
11111001
11111011
11111011
11111101
11111110
0
11111110
11111011
11111100
11111101
11
11111111
110
100
110
111
11111110
11111010
11111111
0
0
0
0
0
0
11111111
11111111
11111110
11111101
101
11
100
0
0
11111010
11111100
11111000
1
11111011
10
111
101
101
110
11111101
11111111
0
0
0
0
0
0
1
0
10
0
1
110
0
1
11111101
0
11111100
11111011
11111100
11111001
11111101
100
101
10
111
0
11111010
11111110
0
0
0
0
0
0
0
1
0
11
101
10
11111110
11111110
11111110
11111110
11111100
11111101
11111011
11111010
10
101
1
0
11
0
11111100
11111110
0
0
0
0
0
0
11111111
1
1
11111111
11
0
0
11111111
11111110
0
11111100
11110110
11111101
0
0
10
1
11111110
0
11111101
11111101
11111110
0
0
0
0
0
0
0
1
0
11111101
11111110
11111101
0
0
11111110
0
11111100
11111110
11111101
11111111
100
11
11
10
0
11111101
11111100
11111111
0
0
0
0
0
0
0
1
11111111
0
0
1
11111101
11111101
11111100
1
11111110
11111101
11111110
10
10
11111110
100
11111101
0
11111111
11111111
0
10
0
0
0
0
0
0
0
0
0
11111100
11
11
0
0
1
11111111
11111101
11
1
0
0
11111110
0
0
0
0
11
10
0
0
0
0
0
0
0
1
11111111
11111110
10
1
11
0
100
1
0
10
0
10
101
1
0
11111101
11111110
0
1
1
0
0
0
0
0
1
1
11111101
0
0
0
100
100
11111110
1
1
0
1
100
0
0
0
0
1
0
1
1
0
0
0
0
0
0
10
10
0
11111110
11111111
11111010
11111011
11111110
11111111
10
11
11111101
11111110
10
0
11111111
1
0
11111111
1
10
10
1
0
0
0
0
0
0
0
0
11
1
10
11111111
0
0
0
11111111
1
10
0
0
0
0
0
11111111
1
10
1
0
0
0
0
0
0
1
1
11111111
11111111
101
11111111
0
1
1000
0
0
11111111
10
0
1
0
11111111
11111100
11111111
1
0
0
0
0
0
0
0
0
10
100
11
10
11111111
11111110
11111111
0
1
11
11111111
11
0
11111111
10
0
0
11111111
0
0
0
0
0
0
0
0
0
0
0
10
10
1
0
0
0
10
10
1
0
0
0
11111111
11111111
0
0
0
0
0
0
0
0
0
0
0
0
0
0
0
0
0
0
0
0
0
11111101
11111110
11111111
0
1
1
0
0
0
0
0
0
0
0
0
0
0
0
0
0
0
0
0
0
0
0
0
0
0
0
0
0
0
0
0
0
0
0
0
0
0
0
0
0
0
