0
0
0
0
0
0
0
0
0
0
0
0
0
0
0
0
0
0
0
0
0
0
0
0
0
0
0
0
0
0
0
0
0
0
0
0
0
0
0
0
0
0
0
0
0
0
0
0
0
0
0
0
0
0
0
0
0
0
0
0
0
0
0
0
0
0
0
1
1
10
10
11
10
1
0
0
0
0
0
0
0
0
0
0
0
0
0
0
0
0
0
0
0
0
11111111
11111110
11111110
0
0
11
1
0
0
1
11111111
11111110
11111110
0
0
0
0
0
0
0
0
0
0
0
0
0
11111111
11111111
11111111
11111101
11111110
0
11111110
1
10
1
1
11
0
11111111
11111101
11111111
11111111
0
0
0
0
0
0
0
1
0
0
0
11
1
0
1
0
10
1
0
11111111
11111111
11111101
11111111
10
1
11111111
11111110
11111111
11111111
0
0
0
0
0
0
1
0
11111111
11111111
1
11111111
11111110
101
10
11111110
11111111
0
11111111
1
11111100
11111001
11111111
11
0
11111111
11111110
11111110
0
0
0
0
0
1
11
10
11111110
10
11111011
10
0
110
0
11111110
11111111
0
0
0
0
11111011
11111111
0
11111110
1
11111111
11111111
0
0
0
0
1
1
100
1
11111101
11
1
0
10
1
10
1
1
11
1
0
0
0
10
11111111
1
110
0
11111111
11111111
0
0
0
0
1
100
10
0
101
10
11111111
1
11111111
11111111
100
100
11
11111101
11111101
0
11111111
10
10
11
110
10
11111111
0
0
0
0
0
0
100
1
0
11111111
0
11111100
1
0
10
100
0
11111101
11111011
1
10
11111111
1
0
10
110
10
0
0
0
0
0
0
0
10
0
0
0
11111110
11
10
100
0
11111000
11111001
11111011
11
11111111
0
0
10
1
10
110
100
0
0
0
0
0
0
0
1
11111110
0
11
10
10
0
11111101
0
11110110
11111010
11111010
0
11111111
10
11111101
0
0
0
1
110
1
0
0
0
0
0
1
11111111
11111111
11
11111110
0
11
1
11111100
11110011
11110100
11111011
11111011
11111101
11111111
11111100
11111011
11111100
11111101
11111101
0
110
1
0
0
0
0
0
1
11111101
101
11
11
110
111
100
11110100
11101110
11111000
100
0
11111011
11111011
0
11111100
11111100
11111110
11111110
10
11
0
0
0
0
0
0
1
11111111
101
100
100
1
10
11111001
11101011
11101011
11111111
101
11111111
11111000
11111100
11111011
11111000
11111100
11111110
1
0
0
0
0
0
0
0
0
0
1
11
11
0
0
11111111
11110011
11101000
11110000
1
1010
0
100
11111110
11111001
11111110
11111101
1
11111111
0
11111110
0
0
0
0
0
0
0
1
11
11111111
11111001
11111011
11111001
11110010
11110001
11111010
111
1011
110
1
0
0
11111110
0
0
11111111
0
11111101
0
0
0
0
0
0
11111110
11111101
1
11111010
11111001
11111011
11111011
11111001
11111010
11111011
1
11
100
0
10
11
11111101
0
10
11111110
11111111
0
0
0
0
0
0
0
11111110
11111101
11111111
11111100
11111011
11111010
11111001
11111101
11111110
11111011
0
110
101
1
10
11111111
11111101
100
11
0
11111111
0
0
0
0
0
0
0
0
0
11111111
11111111
11111110
11111110
11111111
1
0
110
1
100
101
11
100
100
1
0
1
11111110
11111111
0
0
0
0
0
0
0
0
0
11111111
1
0
0
11
1010
100
0
0
0
110
101
101
100
0
0
0
11111110
0
1
1
0
0
0
0
0
0
0
1
11
100
10
0
11111100
11111110
11111111
0
100
101
11111110
110
100
0
0
0
11111111
0
0
1
0
0
0
0
0
0
11111111
0
11
11
0
101
11111110
11111111
11
0
0
10
11111111
11
0
10
0
0
0
0
11111111
0
0
0
0
0
0
0
0
0
1
1
100
11
10
0
0
1
11
11
11111110
101
100
1
0
10
0
0
0
0
0
0
0
0
0
0
0
11111110
11111110
0
11
11
11111111
0
11
1
101
10
11111111
10
1
0
11111111
0
0
0
0
0
0
0
0
0
0
0
0
11111110
11111111
0
0
11
0
11111111
11111111
11111101
0
1
11111111
0
1
11
1
1
1
0
0
0
0
0
0
0
0
0
0
0
0
0
0
0
0
0
0
0
0
11111111
0
0
0
0
0
0
0
0
0
0
0
0
