0
0
0
0
0
0
0
0
0
0
0
0
0
0
0
0
0
0
0
0
0
0
0
0
0
0
0
0
0
0
0
0
0
0
0
0
0
0
0
0
0
0
0
0
0
0
0
0
0
0
0
0
0
0
0
0
0
0
0
0
0
0
0
0
0
0
0
0
0
0
0
1
1
0
0
0
0
0
0
0
0
0
0
0
0
0
0
0
0
0
0
0
0
0
11111111
11111111
11111111
11111101
11111110
1
0
11111111
1
100
10
0
1
1
0
0
0
0
0
0
0
0
0
0
0
11111111
11111101
11111101
11111100
11111010
11111010
0
11111101
11111011
11111100
0
0
101
100
1
1
0
0
0
0
0
0
0
0
0
0
0
0
11111110
11111101
11111101
11111101
11110110
11111001
11111001
11111011
0
0
11111110
11111011
11111101
11111111
0
11111111
10
1
0
0
0
0
0
0
0
0
1
0
11111011
11111010
11111100
11111011
11111011
11111001
11110101
11111001
11111010
11111011
11110101
11111001
11111010
11111101
11111010
11111101
11
1
11111111
0
0
0
0
0
11111111
0
10
11111101
11111111
11111011
0
11111110
11111100
11111010
11110110
11110111
11110110
11110111
11111010
11111100
11111110
0
11111100
11111110
0
1
0
0
0
0
0
0
0
1
10
11111110
1
11111010
11111011
11111100
11110111
11110101
11110101
11110100
11110111
11111000
1
11111101
11111110
0
11111111
11111111
11111100
1
0
0
0
0
0
0
0
0
1
11111011
11111100
11111100
11111001
11111010
11111011
11111011
0
11111111
101
110
11111111
0
1
0
101
0
11111100
0
11111110
11111111
0
0
0
0
11111111
1
0
11111011
11111110
0
0
11111110
11
111
1001
1001
1011
11
11
11
1
10
100
11
11111101
11111111
0
0
0
0
0
0
11111111
10
0
11111111
11111110
1
110
100
10
111
110
10
0
11
11111100
1
1
1
11
10
11111110
11111100
11111111
11111111
0
0
0
0
11111111
1
11111111
0
11
100
100
1000
110
111
0
0
11111111
1
11111101
11111111
0
0
0
10
11111101
11111111
11111110
11111111
0
0
0
0
0
10
11
100
1
11
11
1
111
101
11
100
11
10
0
0
11111111
10
10
10
0
1
11111111
0
0
0
0
0
0
11
1000
100
1
11
11
100
100
100
0
11
0
0
0
11111100
11111110
1
110
110
100
10
0
0
0
0
0
0
1
1
11
10
10
11
11
10
10
11
1000
11
0
0
0
11111111
11111110
0
100
111
11
0
0
0
0
0
0
0
0
11111111
0
10
110
110
0
0
11
100
1011
11
100
11
11111111
11
100
1
11
10
11111110
11111110
0
0
0
0
0
0
0
11111101
11111011
0
101
11
11111111
0
10
101
111
11111111
11111110
11111110
11111111
111
10
1
1
11111110
11111101
11111110
0
0
0
0
0
0
11111111
11111011
11110111
11110111
11111111
10
110
11
10
110
1000
1
11
100
1
11
0
11111100
11111101
11111001
11111101
11111111
0
0
0
0
0
0
0
11111100
11110110
11110100
11111011
0
101
0
101
101
11
10
11
0
11111100
0
11111101
11111001
11111000
11110111
11111101
11111111
0
0
0
0
0
0
11111111
11111100
11110111
11110110
11111010
11111101
0
11111101
0
1
0
101
11111111
11111111
0
11
11111000
11111010
11111010
11111001
11111101
11111111
11111111
0
0
0
0
0
0
11111110
11111101
11111001
11110111
11111011
11111011
11111100
11111101
0
11111111
0
11111101
0
11111111
11111110
11111001
11111101
11111011
11111011
11111101
11111111
0
0
0
0
0
0
0
0
1
11111111
11111001
11111011
11111100
0
11111011
11111100
0
11111101
10
1
0
1
11
0
0
11111101
11111110
0
0
0
0
0
0
0
0
1
10
0
0
0
0
11111111
11111101
0
0
10
0
11111010
11111101
0
10
1
0
11111110
11111111
0
0
0
0
0
0
0
0
0
0
11111111
11111110
0
101
10
0
11111110
11111110
11
0
11111111
10
0
11111111
11111110
1
0
0
0
0
0
0
0
0
0
0
0
0
11111110
11111110
11111111
1
11111111
11111111
11111100
11111111
11111111
0
11111100
11111100
11111111
11111001
11111101
0
0
0
0
0
0
0
0
0
0
0
0
0
11111111
11111111
11111111
11111110
11111100
11111100
11111110
11111110
11111011
11111111
11111101
11111110
11111110
11111110
11111111
11111111
0
0
0
0
0
0
0
0
0
0
0
0
0
0
0
0
0
0
0
0
0
11111111
0
0
0
0
0
0
0
0
0
0
0
0
