0
0
0
0
0
0
0
0
0
0
0
0
0
0
0
0
0
0
0
0
0
0
0
0
0
0
0
0
0
0
0
0
0
0
0
0
0
0
0
0
0
0
0
1
0
0
0
0
0
0
0
0
0
0
0
0
0
0
0
0
0
0
0
0
0
0
0
0
0
11111111
11111101
11111110
0
0
0
0
0
0
0
0
0
0
0
0
0
0
0
0
0
0
0
11111111
0
11111111
11111101
11111110
11111111
0
11111110
11111110
0
1
100
10
0
11111111
0
0
0
0
0
0
0
0
0
0
0
0
0
0
0
11111111
11111111
0
0
0
0
10
10
100
11
0
0
0
11111111
11111110
11111111
1
0
0
0
0
0
0
0
0
11111110
0
11111110
11111011
11111010
11111111
0
1
1
101
1010
100
1
11111111
0
0
0
11111110
11111110
0
0
0
0
0
0
0
0
11111111
0
11111101
11111100
11111000
0
0
11111111
11111111
100
1110
1110
100
11111111
11111101
0
0
11111111
11111101
11111110
0
0
0
0
0
0
0
0
11111111
11111111
11111011
11111110
11111110
0
11
0
1
111
1011
1000
0
11111100
11111100
0
11111110
11111111
11111011
0
0
11111111
0
0
0
0
0
0
11111110
11111110
11111110
0
11111110
0
1
11111110
1000
1111
1100
100
11111101
11111111
1
10
0
0
0
0
0
1
0
0
0
0
0
11111111
1
0
0
11111111
11111101
11111100
11111011
11111011
1101
10011
110
11111100
11111011
11111110
1
11111101
11111011
0
0
0
10
10
0
0
0
0
0
0
1
1
1
11111101
11111011
11111101
11111100
0
1101
1110
0
0
11111100
11111110
11111111
11111010
0
0
11111111
0
1
1
0
0
0
0
0
1
0
10
10
1
0
0
11111110
0
1010
0
11111010
11111000
11111001
11110101
0
0
11111110
0
0
11
1
1
0
0
0
11111111
0
11
10
1
0
0
101
0
11111011
101
1000
0
11111010
11111111
11111000
11111000
0
0
11111110
11111101
0
0
1
0
0
0
0
0
1
11
11111111
0
0
11111100
1
11111110
1
110
10
10
11
111
11111111
11111110
11111010
11111101
11111110
11111101
11111101
0
0
1
0
0
0
0
0
1
11111101
10
0
11111011
11111100
11111110
11111110
10
1
0
1
0
11111110
11111100
11110110
11111101
11111111
11111011
11111100
1
10
0
0
0
0
0
0
1
0
0
11111110
11111111
10
0
0
0
0
11111101
10
101
0
1
11111101
10
0
11111101
11111111
10
0
0
0
0
0
0
0
1
10
11111111
0
11111110
1
0
10
11111111
11111011
0
11111111
1
11
111
0
101
0
11111111
0
0
11111111
0
0
0
0
0
0
1
11
10
100
11111111
10
1
11111111
11
1
1
110
11111111
0
11111110
1
10
0
11111110
11111111
11111101
11111110
0
0
0
0
0
0
1
100
110
0
11111111
11
10
0
10
11111101
0
1000
11111110
0
0
10
0
11111111
0
11111111
11111111
0
0
0
0
0
0
0
1
100
100
1
0
10
0
11111111
10
1
11111101
10
100
1
11
1
11111110
0
10
1
10
1
0
0
0
0
0
0
1
101
10
10
10
0
0
1
11111110
0
0
0
1
0
1
1
10
0
1
11
10
1
0
0
0
0
0
0
1
0
0
11
11111111
11111110
11111101
11111110
0
0
100
1
101
0
11111100
0
0
11111110
0
10
100
1
0
0
0
0
0
0
0
0
0
1
0
1
0
0
1
11
100
1
11
11
1
10
101
0
0
11
11
1
0
0
0
0
0
0
0
0
0
11111111
11111110
11111110
11111111
0
0
11
0
10
0
100
100
100
101
1
10
1
10
0
0
0
0
0
0
1
1
0
11111111
0
0
11111101
11111110
11111101
11111010
11111100
1
0
11111010
11111101
100
101
100
0
0
1
0
0
0
0
0
0
0
0
0
0
1
1
0
0
11
11111111
11111110
11111101
11111110
11111100
11111011
0
10
111
101
10
0
0
0
0
0
0
0
0
0
0
0
1
0
0
1
1
10
11
10
10
1
11111110
0
1
11
11
10
10
0
0
0
0
0
0
0
0
0
0
0
0
0
0
0
0
0
0
0
0
0
0
0
0
0
0
0
0
0
0
0
0
0
0
