0
0
0
0
0
0
0
0
0
0
0
0
0
0
0
0
0
0
0
0
0
0
0
0
0
0
0
0
0
0
0
0
0
0
0
0
0
0
0
0
0
0
0
0
0
0
0
0
0
0
0
0
0
0
0
0
0
0
0
0
0
0
0
0
0
0
0
0
0
0
0
0
0
1
10
0
0
0
0
0
0
0
0
0
0
0
0
0
0
0
0
0
0
1
11
0
0
1
0
1
11
11
1
0
0
11111111
11111111
0
0
0
0
0
0
0
0
0
0
0
11111111
11111111
0
10
0
0
0
11111111
10
110
1001
100
11
100
1
10
0
0
1
0
0
0
0
0
0
0
0
0
11111111
1
0
0
11111110
0
0
0
1
11111111
11
111
111
101
101
100
100
1
1
0
0
0
0
0
0
0
0
0
11111111
1
1
1
101
1
1
10
101
1
0
0
0
11
101
1
100
100
100
10
0
0
0
0
11111111
0
0
0
11111111
11111111
101
0
11
0
0
11111101
0
0
10
1
101
0
0
1
10
1
11
11
0
0
0
0
0
11111111
0
0
11111110
11111110
11111101
11111110
0
0
100
1
1
0
10
101
0
10
0
0
100
100
101
11
1
0
0
0
11111111
11111110
11111111
0
11111110
101
10
11111111
0
11
10
11111101
0
1
101
0
0
0
0
11111110
10
101
101
110
10
0
0
0
11111111
0
0
11111111
1
0
10
1
0
11111111
0
1
1001
111
110
11111111
0
0
1
0
0
11
110
1000
1
0
0
0
0
11111111
0
0
0
11111011
11111101
11111011
11111011
1
11111100
10
111
1
0
0
11111111
0
11111100
11111100
11111101
0
111
101
1
0
0
0
11111111
11111111
11111111
11111110
11111111
0
11111110
10
0
1
1
111
1010
0
11111110
0
11111111
1
0
11111101
11111000
11111011
1
10
0
0
0
0
11111111
11111111
11111101
11111101
11111111
11111111
10
0
11111101
11111111
11
1110
10
11111101
11111010
11111101
11111110
11111010
11111100
11110110
11110110
11111011
0
1
0
0
0
0
0
0
11111111
11111101
0
11111111
11111011
11111111
11111111
1
100
1001
0
11111100
11111100
11111110
11111100
11110111
11110111
11110101
11110011
11111001
0
0
0
0
0
0
0
0
11111111
0
0
101
10
11111111
11111011
11111110
1000
1100
1
11111011
0
11111001
11111111
11111010
11110111
11111001
11111000
10
101
10
0
0
0
0
0
0
11111111
11111111
11111111
11111111
0
0
11111101
10
1011
101
11111111
11111001
11111011
11111110
11111011
11111110
11110111
11111111
11
101
101
11
1
0
0
0
0
0
0
0
0
11111110
0
0
11111111
0
111
1
11111000
11110010
11111011
11111111
11111100
1
1
0
10
10
1
1
0
0
0
0
0
10
0
100
10
11111111
11111110
100
10
0
10
0
11111110
11111100
11111011
11111100
11111101
11111110
0
11111110
1
10
0
0
0
0
0
0
0
1
11111110
100
11
1
10
100
10
11111110
11111101
11
11111111
11111111
11111111
11111101
10
11111101
101
0
101
110
10
1
0
0
0
0
0
0
0
11
100
11
1
1
11
0
11111101
11111111
11111011
11111101
11111111
11111011
10
101
111
100
111
110
0
0
0
0
0
0
0
0
10
1
100
110
11111100
0
11
10
11111110
1
0
0
11111011
1
101
11
0
10
111
11
0
1
0
0
0
0
0
1
10
100
101
100
11111110
11111110
1
0
100
101
10
0
11111101
0
11
10
1
100
100
1
0
1
0
0
0
0
1
10
100
110
11
10
101
0
1
10
10
1
100
11
10
1
10
0
11
100
10
1
0
0
0
0
0
0
1
1
1
1
11111111
0
0
11111100
1
0
11
11
100
11
0
11111111
11
0
11111111
1
1
0
0
0
0
0
0
0
0
0
0
0
0
0
11
1
110
11
11111111
11
11111101
0
0
0
11111101
11111110
11111100
11111110
0
1
1
0
0
0
0
0
0
0
0
11111111
11111110
11111110
11111101
11111010
0
100
1
11111101
11111101
0
1
11111111
11111111
11111111
11111111
11111111
11111111
0
0
0
0
0
0
0
0
0
0
0
0
0
0
0
11111111
0
0
0
0
0
0
0
11111111
11111111
11111111
11111111
11111111
0
0
0
0
0
