0
0
0
0
0
0
0
0
0
0
0
0
0
0
0
0
0
0
0
0
0
0
0
0
0
0
0
0
0
0
0
0
0
0
0
0
0
0
0
0
0
0
0
0
0
0
0
0
0
0
0
0
0
0
0
0
0
0
0
0
0
0
0
0
0
0
1
0
0
1
0
0
0
1
10
1
0
0
0
0
0
0
0
0
0
0
0
0
0
0
0
0
0
1
1
1
10
1
11111100
11111011
11111011
11111011
11111011
0
0
1
0
0
0
0
0
0
0
0
0
0
0
0
0
0
1
10
1
0
1
0
11
11111111
11111000
11111100
11111100
0
11111110
1
1
1
1
0
0
0
0
0
0
0
0
1
10
10
11
11
11
11
11
1
100
1
0
10
11111101
11111011
11111101
0
0
0
0
11111111
0
0
0
0
0
0
1
10
10
10
0
0
0
100
1
0
100
0
11111111
11111110
11111001
11111011
11111100
11111110
1
0
0
0
0
0
0
0
0
0
0
10
0
0
11111110
1
10
1
0
10
110
11
11111111
11111111
11111110
11111001
11111101
11111110
0
0
11111111
1
0
0
0
0
0
1
10
1
0
0
0
1
10
11111101
1
10
111
111
0
11111111
11111010
11111000
11111100
11111110
1
1
11
0
11111111
0
0
0
0
1
0
0
11111110
0
11111110
11111101
11111101
0
0
0
101
1000
11
11111110
11110111
11110111
11111001
11111101
11111110
1
111
0
11111111
0
0
0
0
0
0
0
11111110
11111010
11111010
11111110
11111101
11111111
0
1
111
111
110
11111100
11110111
11110011
11111010
0
0
100
111
11
0
0
0
0
0
0
11111111
11111110
11111110
11111001
11111110
11111110
11111100
0
101
111
110
110
0
11111001
11111000
11110110
11110110
11111111
0
101
11
1
0
0
0
0
0
0
11111110
11111100
11111110
1
11
100
0
10
100
111
1
0
11111110
11110111
11110111
11110110
11111000
10
1000
100
10
1
0
0
0
0
0
0
11111111
11111110
10
101
11
100
101
101
10
11111111
0
1
11111111
11111101
11111000
11110110
11111011
100
111
100
10
1
0
0
0
0
0
1
0
0
10
10
100
101
110
0
11111100
0
11111101
0
11111110
11111100
11111001
11111100
11
100
110
1
0
11111111
0
0
0
0
0
0
1
1
101
111
11
1
101
11111111
1
11111110
1
11111100
11111100
11111011
11111101
11111111
100
11
0
10
1
0
0
0
0
0
0
0
0
11
110
0
1
1
0
11111011
11111100
11111111
11111111
11111010
11111101
11111100
0
10
100
0
0
0
1
0
0
0
0
0
0
11111111
0
10
100
11111110
11111110
1
0
11111110
11111001
11111101
10
10
11
11
10
11
11
1
11
0
0
0
0
0
0
0
0
11111110
1
10
10
10
0
0
1
1
1
11111111
100
0
101
11111111
1
1
11
10
11
10
11111110
0
0
0
0
0
0
0
0
100
0
1
1
11111100
0
11
11
11111010
0
11111111
11111101
0
11
0
110
10
10
1
0
0
0
0
0
0
0
11111111
11111111
10
0
11111111
0
1
10
0
1
0
11111111
10
11111111
0
11111111
0
11
11111110
0
1
0
0
0
0
0
0
0
11111110
0
0
0
11111111
0
0
1
1
10
0
11111111
1
11111111
0
0
0
11111111
11111101
11111111
0
0
0
0
0
0
0
0
0
0
11111111
0
0
11111111
11111111
0
0
10
1
0
0
1
11111110
0
11111110
11111101
11111110
11111111
0
0
0
0
0
0
0
0
0
0
0
11111111
0
0
11
1
0
10
0
1
0
1
11111111
11111110
0
11111111
0
11111111
11111111
0
0
0
0
0
0
0
0
11111111
0
11111101
0
1
100
1
11
11
0
0
11111110
0
11111111
11111110
1
0
0
0
0
0
0
0
0
0
0
0
0
0
11111111
11111101
11111100
11111110
0
0
0
11111100
11111111
11111110
11111111
11111101
0
0
0
11111111
0
0
0
0
0
0
0
0
0
0
0
0
0
11111111
0
0
0
11111111
0
0
0
0
1
1
0
0
0
0
11111111
0
0
0
0
0
0
0
0
0
0
0
0
0
0
0
0
0
0
0
0
0
0
0
0
0
0
0
0
0
0
0
0
0
0
