0
0
0
0
0
0
0
0
0
0
0
0
0
0
0
0
0
0
0
0
0
0
0
0
0
0
0
0
0
0
0
0
0
0
0
0
0
0
0
0
0
0
0
0
0
0
0
0
0
0
0
0
0
0
0
0
0
0
0
0
0
0
0
0
0
0
0
0
11111111
11111110
11111111
0
0
11111111
11111110
11111110
11111111
11111111
0
0
0
0
0
0
0
0
0
0
0
0
0
0
0
0
0
10
101
11
11111110
0
0
0
11111110
11111100
11111101
11111101
11111111
0
0
0
0
0
0
0
0
0
0
1
1
1
101
0
10
10
100
10
0
0
11111101
11111010
11111110
11111010
11111010
11111011
11111101
11111110
11111111
0
0
0
0
0
0
0
11
11
11
100
11
0
11111110
100
1000
0
0
101
11111110
11111101
11111111
11111111
11111010
11111010
11111010
11111011
11111111
0
0
0
0
0
0
1
100
10
110
0
10
11
1
0
1
11
11111111
11111110
0
0
11111110
11111010
11111101
11111110
11110111
11111010
11111110
0
0
0
0
0
0
10
111
1
11
11111100
11111100
11111111
10
10
11111110
101
11111101
10
0
11111111
11111100
11111010
11111001
11110111
11110101
11111001
11111100
0
0
0
0
0
0
1
101
1
11111110
11111101
11111111
11111110
101
11111010
11111111
110
100
11
11111111
0
1
11111101
11110101
11110001
11110100
11110111
11111010
11111111
0
0
0
0
0
0
100
100
1
0
11111110
11111100
11111101
11111101
11
1
1001
1011
1010
1011
101
11111011
11110001
11101111
11110100
11111001
11111101
11111111
0
0
0
0
0
1
11
0
0
11111111
11111011
11111011
0
0
10
101
101
1010
10010
10000
11
11111010
11101100
11101111
11110110
11111010
11111100
11111111
0
0
0
0
0
1
1
11111111
11111110
0
11111111
0
11
101
100
0
111
111
100
110
11111100
11110001
11110101
11110101
11111010
11111011
11111100
11111111
0
0
0
0
0
0
0
0
11111011
11111110
1
10
11111111
0
10
11
1011
101
11
1
11111011
11110110
11110110
11111001
11111111
0
1
1
0
0
0
0
0
0
0
11111110
11111110
0
0
0
1
10
11
100
10
11
101
0
11111110
11111001
11111101
11111110
11111111
11
100
10
0
0
0
0
0
0
11111111
0
0
11111110
11111110
11111111
11111111
11111111
0
10
11
0
0
11111110
11111101
11111111
11111100
100
11111111
10
10
11
0
0
0
0
0
0
11111111
0
1
11111110
11111110
0
11111100
11111101
11111110
100
101
1
0
11111101
11111011
11111111
11111111
100
0
11111111
10
10
0
0
0
0
0
0
11111110
11111111
1
110
111
1000
10
0
11111100
10
110
11111100
10
11111001
10
11111110
11
0
0
1
100
1
0
0
0
0
0
0
11111110
11111100
1
1
1
1
11111101
11111101
11111101
10
11111110
11110111
11111111
11111111
10
0
11111111
1
101
100
10
1
1
0
0
0
0
0
11111111
11111101
1
1
0
1
0
0
0
10
11111010
11111000
11111111
101
1
0
11
0
101
100
0
1
0
0
0
0
11111111
0
0
11111111
0
10
11111110
11111100
0
11110111
11111111
0
0
11111111
0
0
0
110
0
11111111
1
0
11111110
0
0
0
0
0
0
0
0
11111010
11111110
10
0
0
1
11111100
11111110
11111110
11111111
11111101
0
11111011
11111111
1
1
0
11111110
11111101
11111111
0
0
0
0
0
0
1
1
11111100
11111100
11111110
11111111
11111111
11111110
11111111
11111110
11111000
0
0
11111110
11111011
11111110
11111111
11111101
11111011
11111110
11111110
11111111
0
0
0
0
0
0
1
10
0
0
0
0
11111110
11111111
11111110
11111010
0
11111101
11111011
0
11111100
10
11111111
10
0
0
11111110
0
0
0
0
0
0
0
0
0
0
0
100
1
10
11111111
0
0
11
11111011
11111110
11111101
1
101
11
10
1
1
11111111
0
0
0
0
0
0
0
0
1
1
1
11
10
11111101
11111111
0
11111011
11111110
1
11111100
11111111
1
0
0
0
0
0
11111110
11111111
0
0
0
0
0
0
0
0
1
1
11
10
1
0
11111100
11111001
11111110
11111111
11111100
11111011
11111100
11111101
11111101
0
0
11111111
11111110
11111111
0
0
0
0
0
0
0
0
0
0
0
0
0
0
11111111
11111111
0
11111110
11111011
11111100
0
11111111
11111110
11111111
0
0
0
0
0
0
0
0
0
0
0
0
0
0
0
0
0
0
0
0
0
0
0
0
0
0
0
0
0
0
0
0
0
0
0
