0
0
0
0
0
0
0
0
0
0
0
0
0
0
0
0
0
0
0
0
0
0
0
0
0
0
0
0
0
0
0
0
0
0
0
0
0
0
0
0
0
0
11111111
0
0
0
0
0
0
0
0
0
0
0
0
0
0
0
0
0
0
0
0
0
11111111
11111111
11111110
11111110
11111110
11111100
11111110
11111110
11111110
11111101
11111100
11111110
11111111
11111111
0
0
0
0
0
0
0
0
0
0
0
0
0
0
11111111
11111110
11111101
11111101
11111100
11111010
11111101
11111110
11111100
11111011
11111010
11111011
11111110
11111111
11111111
0
0
0
0
0
0
0
0
0
0
0
0
0
11111100
11111011
11111010
11111011
11111101
11111110
11111111
11111110
11111101
11111101
11111110
11111111
1
0
0
0
0
11111111
0
0
0
0
0
0
0
0
10
0
1
11111111
0
11111101
11111001
11111011
11111101
11111110
11111101
11111100
11111110
11111011
0
11111110
0
0
11111111
11111111
0
0
0
0
0
0
0
11
111
101
100
11
0
10
0
1
10
1
11
11111110
0
11111111
11111011
1
0
11111011
11111111
11111111
0
0
0
0
0
1
0
11111111
101
10
0
10
1
0
10
11
0
11111110
11
110
11111110
10
0
0
11111101
11111101
11111111
0
0
0
0
0
0
0
11111111
11111111
0
10
11
1
11111111
1
0
11111100
0
11
0
11111110
0
11111100
11111111
11111110
0
0
11
0
11111110
0
0
0
0
0
11111111
0
0
0
1
0
111
110
100
11
11
0
11111111
0
100
1
0
11111111
1
11111101
11111111
11111110
0
1
0
0
0
0
11111111
0
0
0
0
11
0
1
101
110
0
10
10
10
11111110
10
11111101
0
0
11111010
11111100
10
0
0
0
0
0
11111111
11111101
11111101
10
10
101
0
0
0
11
11111110
100
1001
110
111
10
1
11111111
0
0
11111100
11111000
11111111
11111111
0
0
0
0
11111111
11111101
11111011
0
1
10
0
10
1
10
11
10
1001
110
100
111
100
0
11111110
1
11111010
11111000
11111110
0
0
0
0
0
11111111
1
0
0
11
1
0
110
0
1
11111111
0
10
100
1000
1
0
11111110
0
11111111
0
11111111
11111110
0
0
0
0
0
0
10
10
10
0
100
11
101
11
10
0
11111110
0
100
110
110
10
0
11111111
100
100
11111111
0
0
0
0
0
0
0
100
1
110
10
11111111
11111111
10
11111110
0
11111111
11111111
111
0
111
10
0
0
11111111
1
0
11111111
0
0
0
0
0
0
0
100
11
1000
1001
101
10
1
11111110
11111111
11111101
11111111
11
10
110
100
0
100
11111110
11111111
11111110
11111101
0
0
0
0
0
0
0
10
11
110
1000
10
10
11111111
0
0
11111110
11111111
110
1000
101
100
11111101
11111111
11111111
11111111
0
11111111
0
0
0
0
0
0
11111111
1
11
11
10
10
10
11
1
11111100
100
1001
1010
101
11
11111111
0
1
0
11111101
11111101
0
0
0
0
0
0
0
0
1
0
11111110
11111111
0
10
11
101
1
0
100
0
0
11111001
11111010
0
1
0
11111011
11111011
11111111
0
0
0
0
0
0
11111111
0
11111100
11111011
11111010
11110110
11111110
0
11111111
11111011
11111010
11110101
11110001
11111001
11111000
11111100
11111011
11110110
11111001
11111100
11111101
11111111
0
0
0
0
0
0
11111111
11111111
11111100
11111011
11110111
11110100
11110110
11110110
11111000
11111000
11110010
11101111
11101111
11111001
11110100
11111010
11111010
11111010
11111101
11111101
11111111
0
0
0
0
0
0
0
11111111
11111110
11111011
11111101
11111110
11111100
11111001
11111010
11111010
11111011
11110110
11111100
11111011
11111001
11111001
11111001
11111000
11111101
11111110
0
0
0
0
0
0
0
0
0
11111111
11111111
11111111
0
0
11111111
11111111
11111110
11111100
11111010
11111010
11111100
11111000
11111000
11111101
11111000
11111011
11111100
11111111
11111110
0
0
0
0
0
0
0
0
0
1
11
0
0
11111111
11111101
11111100
11111100
11110111
11111100
11111011
11111000
11111010
11111111
11111010
11111100
0
0
0
0
0
0
0
0
0
0
0
0
10
11
11111110
0
11111101
11111110
11111101
1
11111101
11111011
0
10
11111111
11111111
11111101
11111101
0
0
0
0
0
0
0
0
0
0
0
0
0
0
0
0
0
1
0
11111110
11111111
1
100
11
1
0
0
1
1
0
0
0
0
0
0
0
0
0
0
0
0
0
0
0
0
0
0
0
0
0
0
0
0
0
0
0
0
0
0
0
0
0
0
0
