0
0
0
0
0
0
0
0
0
0
0
0
0
0
0
0
0
0
0
0
0
0
0
0
0
0
0
0
0
0
0
0
0
0
0
0
0
0
0
0
0
0
0
0
0
0
0
0
0
0
0
0
0
0
0
0
0
0
0
0
0
0
0
0
0
0
0
0
11111111
11111111
0
11
1
0
0
0
0
0
0
0
0
0
0
0
0
0
0
0
0
0
0
0
0
11111111
11111101
11111110
0
1
0
1
11
0
0
11111111
0
0
11111111
0
0
0
0
0
0
0
0
0
0
0
0
11111111
11111111
11111101
11111111
10
10
1
11111101
1
11111101
11111001
0
11111110
11111101
10
1
0
10
1
0
0
0
0
0
0
1
10
1
0
0
1
1
0
1
100
11111100
1
0
11111101
0
0
11111111
11111011
0
1
1
1
0
0
0
0
0
0
0
0
0
0
0
0
0
100
0
11
1
0
100
1
10
11111111
0
1
11111101
0
10
1
0
0
0
0
0
0
0
0
11111111
11111101
0
11111100
0
1
0
10
111
0
1
0
11111101
0
1
0
11111110
0
10
10
0
0
0
0
0
0
0
1
1
11111101
0
101
10
0
11111111
100
11111111
0
1
10
0
0
11111100
11111111
11111110
11111111
10
11
0
0
0
0
11111110
0
0
0
11
11
11111101
11111110
11111110
11111110
10
10
11111111
11111111
11111010
11111011
0
11111101
11111100
11111110
11111111
11111100
10
11
0
0
0
0
0
10
11111111
11111100
0
0
11
11111111
0
100
0
0
0
11111101
11111001
11111001
11111100
11111111
0
11111111
11111011
11111111
10
100
0
0
0
0
0
1
0
0
1
1
1
11111101
11
10
0
11
11
0
10
10
10
11111101
11
11111111
11111111
0
1
10
1
0
0
0
0
11111110
0
0
1
1
11111110
10
0
1
11111111
10
100
0
11111111
11111110
101
11111010
0
0
0
11111111
11111011
11111111
0
0
0
0
0
11111101
11111111
10
0
1
11111100
0
1
10
1
100
100
11111101
1
11111100
11111111
11111100
0
11111110
11111100
11111111
11111011
11111110
0
0
0
0
0
11111111
11111101
0
101
1
100
10
1
11111111
10
11111111
11
101
10
11111101
1
11111101
11111110
11111101
11111110
10
11111110
11111101
0
0
0
1
0
11111111
11111100
11111110
10
0
0
100
101
11
11
0
0
10
1
11111100
0
11111111
0
10
11111111
100
11111111
11111101
0
0
0
0
0
11111111
11111001
11111001
11110100
11110111
11111001
11111111
1000
111
111
101
100
1
11111101
11111110
0
11111111
11111111
11111110
10
0
10
11111110
0
0
0
0
0
0
11111000
11110101
11101101
11110000
11101110
11101001
11110100
11111100
11111100
11111000
11111100
0
11111101
11111110
1
11111111
1
11111111
11111110
0
0
11111111
0
0
0
0
0
1
11111101
11110101
11110101
11110011
11101001
11011111
11011110
11011111
11100100
11101101
11111000
11111110
0
11111111
0
0
101
11
0
11111110
11111101
0
0
0
0
0
0
1
0
11111110
11111101
11111011
11111010
11110101
11110010
11110000
11111001
11111010
0
0
100
11111111
1
11111111
0
11111110
0
1
0
0
0
0
0
0
0
0
1
1
1
11
110
1001
1000
110
10
11111111
1
11111101
11111111
10
10
11111111
1
11111110
100
10
0
0
0
0
0
0
11111111
1
101
100
100
100
100
11
1000
11
100
10
0
11111111
11111111
11111111
1
0
11
11111111
11111111
0
11111111
0
0
0
0
0
11111111
0
100
100
10
0
100
11
111
101
10
0
0
10
11111011
11111101
11111110
11111111
11
11111110
11111111
11111110
11111110
11111111
0
0
0
0
0
1
10
100
11
11
1000
0
110
11
0
11
0
0
11111111
10
0
0
0
11111101
11111101
11111110
0
11111111
0
0
0
0
0
0
1
10
10
101
100
0
110
1
10
1
1
10
0
0
11111100
11111011
0
0
0
0
11111111
0
0
0
0
0
0
0
0
10
10
10
10
1
11
10
1
100
1
11111110
0
0
11111101
11111110
11111111
0
0
0
0
0
0
0
0
0
0
0
0
1
10
1
0
0
10
10
10
1
11
10
10
10
1
11111111
0
0
0
0
0
0
0
0
0
0
0
0
0
0
0
0
0
0
0
0
0
0
0
0
0
0
0
11111111
0
0
0
0
0
0
0
0
