0
0
0
0
0
0
0
0
0
0
0
0
0
0
0
0
0
0
0
0
0
0
0
0
0
0
0
0
0
0
0
0
0
0
0
0
0
0
0
0
0
0
0
0
0
0
0
0
0
0
0
0
0
0
0
0
0
0
0
0
0
0
0
0
0
0
0
1
1
1
0
0
0
1
0
0
11111111
11111111
0
0
0
0
0
0
0
0
0
0
0
0
0
0
0
0
0
10
11
101
110
110
101
1
11111111
11111111
11111110
11111111
0
11111111
11111111
0
0
0
0
0
0
0
0
0
0
0
0
11
101
11
11
0
10
110
10
100
1
0
0
11111101
11111110
11111101
11111111
0
0
0
0
0
0
0
0
11111110
11111111
0
1
0
100
111
101
1
1
100
100
10
100
100
1
0
11111111
11111110
11111110
1
0
0
0
0
0
0
0
0
11111101
11111110
1
10
10
11
0
11111111
11111110
0
11111111
11111110
11111110
11111111
11111110
0
11111101
11111110
11111110
1
0
0
0
0
0
11111111
0
1
11111101
11111111
10
0
11111111
11
0
0
11111111
10
11111101
11111001
11111101
11111101
11111101
11111110
11111101
11111101
0
10
0
0
0
0
0
11111111
0
11111110
11111111
0
0
11111110
10
101
11111111
0
11111011
11111011
11111101
11111011
11111101
0
0
11111111
1
10
11111111
0
0
0
0
0
0
0
11111111
11111111
11111101
0
11111110
11111110
11
111
11
11111100
11111100
11111101
11111110
11111010
11111001
11111011
0
11111101
1
100
11111111
0
0
0
0
0
0
0
11111110
1
0
10
0
0
100
101
11
11111101
0
11111111
11111010
11111110
11111011
11111100
0
11111111
1
100
0
0
0
0
0
0
0
11111111
11111111
1
10
11111111
11111110
100
101
110
101
10
10
11
100
100
10
1
100
10
101
100
10
0
0
0
0
0
0
0
0
10
11
0
100
110
101
11111111
11111010
11111011
10
0
0
101
10
110
111
1000
111
110
100
0
0
0
0
0
0
0
0
10
1
1
101
10
0
11111101
11111110
10
101
11
10
100
10
1
100
101
111
100
0
0
1
0
0
0
0
0
10
1
1
0
1
11
11
11111110
11111100
0
0
10
0
100
0
11111100
1
10
11
10
10
0
1
0
0
0
0
1
11
11
10
1
0
0
0
11111111
0
0
0
0
11111111
11111111
11111110
10
0
0
10
10
100
11
1
0
0
0
0
10
10
10
10
100
10
0
10
0
11111111
11111100
100
1
0
0
0
1
10
11
100
101
101
100
1
0
0
0
1
100
10
0
11111111
11111111
0
0
0
0
11111111
11111100
11111111
0
0
11
0
0
1
10
0
11111111
0
1
0
0
0
0
0
100
100
10
10
11111111
0
10
11111111
11111110
11111001
11111011
11111100
0
11111110
0
0
11
100
101
10
1
11
0
0
0
0
0
0
11
110
100
1
1
10
11111111
0
1
11111100
11111010
0
11
11111111
0
100
100
101
100
100
11
1
0
0
0
0
0
0
100
110
101
11
10
10
1
100
1
11111111
11111100
11111110
1
11
110
110
101
101
11
10
1
0
0
0
0
0
0
0
1
10
10
10
11111101
11111111
0
0
0
11111111
1
1
11
101
101
110
101
0
1
10
1
0
0
0
0
0
0
0
0
0
11111111
11111101
11111000
11111110
11111111
1
0
0
0
11111111
11111111
1
0
110
10
1
10
1
1
0
0
0
0
0
0
0
1
0
11111110
11111011
11111011
10
11111101
0
11111110
0
1
11111111
1
110
1001
111
101
10
1
1
1
0
0
0
0
0
0
0
0
0
11111100
11111111
0
0
0
11
10
1
1
0
0
1000
1011
1011
111
100
11
1
0
0
0
0
0
0
0
0
0
0
0
110
110
11
1
100
11111110
11111100
11111111
11111100
11111100
100
1000
110
100
10
1
0
0
0
0
0
0
0
0
0
0
0
0
0
0
11111111
11111110
0
1
0
11111110
0
11111111
11111111
0
0
0
0
0
0
0
0
0
0
0
0
0
0
0
0
0
0
0
0
0
11111111
0
0
0
0
0
0
0
0
0
0
0
0
0
0
0
0
0
