0
0
0
0
0
0
0
0
0
0
0
0
0
0
0
0
0
0
0
0
0
0
0
0
0
0
0
0
0
0
0
0
0
0
0
0
0
0
0
0
0
0
0
0
11111111
0
0
0
0
0
0
0
0
0
0
0
0
0
0
0
0
0
0
0
0
0
11111111
11111111
11111110
11111111
0
11
10
0
11111111
0
11111111
11111111
0
0
0
0
0
0
0
0
0
0
0
0
0
0
0
11111111
11111101
11111101
0
1
1
101
11
11
1
0
0
0
0
0
0
0
0
0
0
0
0
0
0
0
0
0
0
0
11111101
0
0
10
10
10
1
11111110
11
10
1
11
0
1
10
1
0
0
0
0
0
0
0
1
0
0
10
10
11111111
11111111
1
11111100
11111011
1
11
0
11111110
0
10
11111111
0
11
1
0
0
0
0
0
0
0
0
0
0
0
10
1
10
0
10
11111111
0
1
0
11111110
1
0
0
0
0
100
100
1
1
0
0
0
0
0
0
0
0
1
0
11111110
0
0
11
0
0
0
11111111
11111011
11111101
11
0
11111101
11111111
0
11
10
0
0
0
0
0
0
1
0
11111110
0
11111101
0
11111110
11111111
1
11111111
10
0
11111101
0
11
11
10
0
1
11111111
10
10
0
0
0
0
0
0
0
11111111
11111111
1
1
0
11111110
0
0
11111101
0
11
0
0
10
0
1
1
10
0
1
10
0
0
0
0
11111111
0
11111110
11111110
11111101
0
0
0
11111101
11111101
11111111
0
11111110
1
11111101
0
11111101
11111101
11111111
11111111
1
11111111
0
11
0
0
0
0
0
0
0
0
11111111
11111100
0
0
0
0
11111110
0
11111100
11111101
11111110
11111110
11111100
11110111
11111000
11111001
11111110
11111101
11111100
0
0
0
0
0
0
0
1
0
11111110
11111110
10
11111111
10
1
10
0
11111110
10
1
11111110
10
11111111
11111011
11110111
11111110
11111010
11111011
11111111
0
0
0
0
0
0
1
11111111
11111111
11111011
1
11111101
0
0
11111110
11111100
11111111
1
100
111
100
1
10
0
11111101
11111010
11111110
11111111
0
0
0
0
0
0
1
11111111
11111100
11111110
11111110
11111110
11111100
11111011
11111111
11111011
0
1
100
110
100
11
10
1
11111110
11111101
11111111
11111111
0
0
0
0
0
0
0
11111110
0
11111111
11111101
11111101
11111101
11111111
0
0
10
11
10
1
11111110
100
100
11
0
11111111
11111111
0
1
0
0
0
0
0
1
1
1
0
11111111
0
0
11111101
11111111
11111100
0
10
0
0
10
110
101
1
11111111
11111110
0
0
0
0
0
0
0
0
1
10
1
101
11
0
11111110
11111110
11110110
11111100
111
100
10
110
1000
1
0
11111111
11111110
11111111
11111111
11111111
0
0
0
0
0
10
1
101
1
1
0
1
0
11111110
11110110
11111101
1011
101
11
11
100
101
11
1
11111110
0
11111100
11111111
0
0
0
0
0
10
1
11
11
0
11111100
0
11111111
0
11110110
0
1110
100
11
100
100
100
11
0
11111101
11111100
11111100
0
0
0
0
0
0
1
10
10
10
0
10
11111110
11111010
11110111
11110100
0
10001
110
1001
10
110
101
100
10
10
11111101
11111100
0
0
0
0
0
0
0
0
0
0
0
11
11111001
11111000
11111010
11111001
0
100
100
111
1
101
111
111
100
0
11111101
11111110
0
0
0
0
0
0
0
0
0
11111101
11111110
11111101
11110111
11111010
11111111
11111101
0
1
101
1000
100
0
100
100
11
1
11111111
0
0
0
0
0
0
0
0
1
11111111
11111100
11111010
11110101
11110111
11111101
11111101
11111110
10
11
100
1
10
0
0
10
1
0
0
0
0
0
0
0
0
0
0
1
0
0
11111110
11111101
11111110
100
11
11111110
0
10
10
10
1010
111
11
10
100
10
1
0
0
0
0
0
0
0
0
0
0
0
1
10
11
100
10
0
1
1
1
1
1
10
0
0
0
0
0
0
0
0
0
0
0
0
0
0
0
0
0
0
1
0
0
0
0
0
1
0
0
0
0
0
0
0
0
0
0
0
0
0
0
0
0
0
0
0
0
0
0
0
0
0
0
0
0
0
0
0
0
0
0
0
0
0
0
0
0
