0
0
0
0
0
0
0
0
0
0
0
0
0
0
0
0
0
0
0
0
0
0
0
0
0
0
0
0
0
0
0
0
0
0
0
0
0
0
0
0
0
0
0
0
0
0
0
0
0
0
0
0
0
0
0
0
0
0
0
0
0
0
0
0
0
0
0
0
0
10
10
1
1
1
0
0
0
0
0
0
0
0
0
0
0
0
0
0
0
0
0
11111111
11111111
0
0
11111111
0
10
11
10
0
11111111
1
10
1
1
0
0
0
0
0
0
0
0
0
0
0
11111111
11111111
11111110
0
0
0
0
11
101
101
0
11111101
11111101
0
10
11
11
11111111
0
0
0
0
0
0
0
0
0
0
0
11111111
0
10
100
110
11
110
0
0
0
11111101
11111011
11111110
11111111
0
11
1
10
11111111
11111111
0
0
0
0
0
0
11111111
0
0
10
1
1
11
111
1010
101
101
11111010
11110110
11111000
11111011
10
11111111
11111110
11
101
0
0
0
0
0
0
0
11111110
11111110
10
0
0
10
1
11
101
11
1001
110
11110101
11111000
11111100
11
0
101
11111111
1
11
11
10
1
0
0
0
0
11111110
11111111
1
11111111
1
0
11111110
1
11
110
1111
111
11111010
11110000
11111101
0
11
101
0
11
11
110
101
0
0
0
0
0
11111111
11111111
11111111
11111100
11111110
11111100
11111111
0
10
1000
1010
11
11110110
11110111
0
1
0
0
1
0
10
111
101
0
0
0
0
0
11111110
0
0
11111111
11111101
0
11111111
100
100
110
1010
11111111
11110011
11111000
11111111
11111101
11111110
11111110
0
11111110
11111101
1
100
0
0
0
0
0
11111111
1
10
0
11111010
0
11111110
11111111
100
111
11
11110111
11110100
11111010
11111100
11111111
11111111
11111000
11111101
11111000
11110110
11111011
10
0
0
0
0
0
0
1
0
11111111
11111110
10
1
11
100
1010
0
11111000
11111100
11111010
11111000
0
11111110
11111110
11111101
11111000
11110101
11111000
0
0
0
0
0
0
0
1
0
11111111
0
1
0
101
101
101
11111111
11111011
0
11110110
11111110
0
10
1
11111101
11111010
11110111
11111010
11111111
0
0
0
0
0
0
1
1
1
11111111
11111011
10
11
11111111
11111101
11111010
11111110
11111110
11111110
0
11111101
0
11111111
11111101
11111110
11111101
0
0
0
0
0
0
0
1
1
0
0
0
0
1000
1000
0
11111101
11110110
11111011
11111100
11111011
11111110
11111110
0
0
11111110
11111011
10
1
0
0
0
0
0
0
0
0
11111111
11111011
11111001
1
100
0
11111110
11111101
11110111
11111110
11111111
0
11111101
11111110
11
0
0
0
1
11
10
0
0
0
0
0
0
0
11111110
11111011
11111011
10
110
11
11111100
11111011
0
11111100
11111111
0
0
110
1
0
1
0
10
100
1
0
0
0
0
0
0
0
11111111
11111101
0
11111100
10
11111110
11111010
0
0
11111111
11111100
11111111
11111100
11111110
11111111
11111111
11111111
0
100
11
0
0
0
0
0
0
1
1
11111101
11111111
0
11111111
11111101
11111110
0
11111111
10
0
11111111
11111101
11111110
11111111
11111100
11111111
11111101
1
10
0
0
0
0
0
0
0
1
11
11111111
11111111
11111111
11111111
100
10
100
1000
0
11111111
1
1
11111111
11111100
11111011
11111101
0
11
101
1
0
0
0
0
0
0
0
10
0
11111011
11111100
100
11
10
101
100
10
1
111
0
10
11
0
10
101
10
101
1
1
0
0
0
0
0
0
1
0
11111101
0
11
10
11111111
110
100
0
0
10
1
11
11
11
11
11
1
1
0
0
0
0
0
0
0
0
0
0
11111111
11111111
1
0
1
0
1
0
10
10
10
0
11111110
10
0
0
11111111
0
0
0
0
0
0
0
0
0
0
11111111
11111111
0
10
1
0
100
10
11
0
11
1
11
10
0
0
0
0
0
1
0
0
0
0
0
0
0
0
11111110
11111111
11111111
11111110
0
0
0
0
1
0
101
1
0
0
0
11111111
0
1
1
1
0
0
0
0
0
0
0
0
11111111
11111110
11111111
11111111
11111110
11111101
0
0
0
11111101
11
1
11111110
11111110
0
0
0
0
0
0
0
0
0
0
0
0
0
0
0
0
0
0
0
0
0
0
0
0
0
0
0
0
0
0
0
0
0
0
0
0
0
