0
0
0
0
0
0
0
0
0
0
0
0
0
0
0
0
0
0
0
0
0
0
0
0
0
0
0
0
0
0
0
0
0
0
0
0
0
0
0
0
0
0
0
0
0
0
0
0
0
0
0
0
0
0
0
0
0
0
0
0
0
0
0
0
0
0
1
1
11
100
1
0
1
1
10
10
10
10
1
1
0
0
0
0
0
0
0
0
0
0
10
1
10
100
1
10
101
111
11
0
10
1
0
1
10
11111111
11111110
1
0
0
0
0
0
0
0
0
0
0
0
0
0
1
1
0
11111111
1
11
1
0
0
11111111
0
11111101
11111010
11111001
11111101
0
0
0
0
0
0
0
0
0
11111110
11111101
11111101
11111100
11111111
11111111
11111101
11111110
100
11111111
11111111
11111111
11111111
11111110
11111101
0
11111110
11111100
11111101
11111111
11111111
0
0
0
0
0
0
1
11111110
11111011
11111100
11111100
11111110
11111101
11111111
11111100
1
0
11111100
0
11111100
0
11111110
10
11111111
0
11111111
0
1
0
0
0
0
0
0
1
11111110
11111011
0
0
0
11111101
11111110
11111110
11111100
11111110
0
11111010
11111101
11111101
11111110
11111110
11111110
11111111
11111101
0
10
0
0
0
0
11111111
11111111
0
11111110
11111101
0
11111111
11111100
11111101
11111110
11111011
11111011
11111110
0
11111011
11111111
11111101
11111100
0
11111101
11111110
11111100
11111110
11111111
0
0
0
0
0
0
0
0
11111101
11111111
11111011
11111001
11111011
11111100
11111110
11111011
1
0
11111111
0
1
11111101
10
0
11111111
11111101
0
11111111
0
0
0
0
0
0
1
1
11111110
1
0
0
0
11111101
11111110
11111110
0
101
11
1
11111100
11111011
11111110
10
0
0
0
0
0
0
0
0
0
0
0
0
11111111
0
0
11111110
11111010
0
11111011
11111101
10
101
11
11
11111111
11111111
0
1
0
10
0
0
0
0
0
0
0
0
0
0
0
1
11111111
11111110
11111111
1
11111011
11111100
111
101
101
110
0
1
0
11111111
1
0
11111111
11111110
11111111
0
0
0
0
1
0
0
0
11111100
11111110
11111001
11111110
1
0
11
110
0
100
11
11
11
11111111
1
1
110
11
11111111
0
0
0
0
0
0
11111111
0
0
11111110
11111101
11111111
0
10
11111110
0
11
11111110
10
11111110
11
1
1000
110
110
101
101
0
0
0
0
0
0
11111111
0
0
11111110
11111111
11111111
11111111
11111110
11111101
11111111
100
11
11111111
0
11111001
100
101
110
0
11111111
11
101
11
11111110
0
0
0
0
0
10
11111111
11111111
11111110
11111010
11111101
0
0
11111101
11111101
110
1
11
11
110
1
1
10
11111111
10
101
100
0
0
0
0
0
0
10
1
1
11111111
11111101
11111100
10
100
0
11111101
11111100
11111100
1
101
11
0
11
11
11111010
11111101
0
10
0
0
0
0
0
0
11
10
11
10
0
0
11111111
0
0
1
110
100
1
101
11
1
11111011
0
11111111
1
10
0
0
0
0
0
0
0
1
0
0
0
0
10
10
101
10
101
111
101
1
10
10
0
11111111
0
1
0
0
0
0
0
0
0
0
0
1
1
11111110
11111111
10
0
101
110
101
100
110
1
0
11111101
11
11111101
11111101
11111111
11111110
11111100
11111110
11111110
0
0
0
0
0
0
11111111
11111101
0
100
0
11111111
1
11111111
0
0
1
10
0
0
11111111
11111001
11111000
11111001
11111010
11111100
11111111
0
0
0
0
0
0
11111111
11111101
11111100
11111110
11111011
11111011
0
11111111
11110111
11111101
11111111
11111110
0
11111011
11111001
11111010
11110101
11110111
11111000
11111010
11111010
11111111
0
0
0
0
0
0
0
11111110
0
0
11111011
11111011
11111100
11111100
11110111
11111001
11110101
11110011
11110001
11110000
11110001
11110110
11111001
11111011
11111101
11111110
11111101
11111111
0
0
0
0
0
0
0
11111111
11111110
11111110
11111100
11111100
11111101
11111110
11111001
11111010
11111000
11111000
11111000
11111010
11111011
11111011
11111100
11111101
11111111
11111111
11111111
11111111
0
0
0
0
0
0
0
11111111
11111111
11111111
11111110
11111110
11111011
11111010
11111001
11111100
11111011
11111100
11111011
11111110
11111111
11111111
11111111
11111110
11111111
0
0
0
0
0
0
0
0
0
0
0
0
0
0
11111111
11111111
0
11111111
0
0
0
0
0
0
11111111
0
0
0
0
0
0
0
0
0
0
0
0
0
0
0
0
0
0
0
0
0
0
0
0
0
0
0
0
0
0
0
0
0
0
0
0
0
