0
0
0
0
0
0
0
0
0
0
0
0
0
0
0
0
0
0
0
0
0
0
0
0
0
0
0
0
0
0
0
0
0
0
0
0
0
0
0
0
0
0
0
11111111
11111111
0
0
0
0
0
0
0
0
0
0
0
0
0
0
0
0
0
0
0
0
1
10
10
1
10
1
1
0
0
0
0
0
0
0
1
0
0
0
0
0
0
0
0
0
0
0
0
10
11
11
101
111
101
100
101
100
10
11
10
1
0
0
0
0
0
0
0
0
0
0
0
0
0
0
1
110
110
110
10
101
1000
100
10
110
11111111
11111101
0
10
11111111
11111110
11111111
11111101
11111111
0
0
0
0
0
0
1
10
11
111
110
10
10
0
10
11111101
11
10
100
10
11111101
0
11111111
11111111
11111110
0
11111110
11111111
0
0
0
0
0
0
10
11
100
10
0
11111111
0
11111100
11110110
11111101
1
1
0
11111100
11111101
11111100
11111000
11111010
11111101
11111111
11111111
11111111
0
0
0
0
0
0
10
11
1
100
11111011
11111010
11111111
0
11111100
11111100
0
0
100
11111111
11111101
11111001
11110101
11110110
11111100
11111101
11111110
11111110
0
0
0
0
0
0
10
10
0
1
11111011
11111100
11111001
11111111
11111011
11111100
11111101
100
0
11111110
11110111
11111000
11110111
11110101
11111001
11111011
11111101
11111101
0
0
0
0
0
11111111
1
0
11111111
11111110
0
11111100
11110100
11111010
11111010
11111010
11111110
100
1
0
11110101
11110101
11111100
11111010
11111101
11111100
11111011
11111101
11111111
0
0
0
0
11111110
11111110
11111110
0
11111111
11111100
11111110
11111010
11111101
11111100
11111101
0
1
11111011
11111101
11110111
11111011
11111101
11111011
0
11111111
11111111
11111101
0
0
0
0
0
11111110
11111111
11111110
11111110
11111101
11111110
11111111
11111111
0
0
100
1000
0
11111111
11111010
11111101
0
11111110
11111110
11111111
11111110
11111011
11111101
11111110
0
0
0
0
0
0
0
11111100
0
11
0
11
1
10
100
101
11111101
110
11111101
11111100
11111110
10
11111111
1
11111111
0
0
11111111
0
0
0
0
0
0
1
1
11111101
11111111
10
1000
1
1
100
1
10
100
0
0
10
1
0
0
100
1
1
0
0
0
0
0
1
0
10
10
11111111
1
0
0
11111101
100
1
1
10
1000
10
0
0
11111110
10
1
10
11111101
11
0
0
0
0
0
1
11111111
1
10
11
11111101
101
11111101
11111100
10
10
1
11111111
100
100
11111111
100
100
100
10
0
0
101
0
0
0
0
0
1
0
1
1
111
0
101
1
11111110
0
11
10
11111110
11111110
11111110
11
1000
110
100
1
11
101
110
1
0
0
0
0
0
0
1
1
100
11111111
11111111
11
11111101
11111111
11
100
0
0
11111100
10
110
11
1000
101
100
10
11
0
0
0
0
0
0
1
0
11111110
0
1
0
11111110
11111000
100
1011
11
0
0
11111111
11111111
1
0
101
11
100
11
10
0
0
0
0
0
0
0
0
11111110
11111111
11111100
11111110
11111110
10
10
1
11111111
1000
110
11111111
11111101
11111100
11111111
10
100
0
0
1
0
0
0
0
0
0
0
0
11111111
11111110
11111101
10
10
101
11
11111110
1000
100
111
0
110
11111110
1
10
1
11111101
0
11111111
0
0
0
0
0
0
0
0
0
11111111
0
11111110
11
10
100
11111110
10
11111111
1000
101
1001
101
0
11111110
11111110
11111101
11111110
0
0
0
0
0
0
0
0
0
0
11111111
0
11
1
0
10
11111110
11111001
11
101
100
11
1
1
0
11111011
11111011
11111110
11111111
0
0
0
0
0
0
0
11111111
11111111
11111111
11111101
101
101
11
0
11111000
11111001
11111101
11111011
11111011
11111100
0
0
11111100
11111101
11111110
11111111
0
0
0
0
0
0
0
0
11111111
0
11111111
11111111
10
1
100
10
11111111
11
1
0
1
11111111
11111110
11111101
0
11111111
11111111
0
0
0
0
0
0
0
0
0
0
0
11111110
11111110
0
11111110
11111111
0
11111100
11111011
11111100
11110111
11111010
11111101
11111110
11111111
11111111
0
0
0
0
0
0
0
0
0
0
0
0
0
0
0
11111111
11111111
11111111
11111101
11111110
11111101
11111111
11111110
11111110
11111111
0
0
0
0
0
0
0
0
0
0
0
0
0
0
0
0
0
0
0
0
0
0
0
0
0
0
0
0
0
0
0
0
0
0
0
0
0
