0
0
0
0
0
0
0
0
0
0
0
0
0
0
0
0
0
0
0
0
0
0
0
0
0
0
0
0
0
0
0
0
0
0
0
0
0
0
0
0
0
0
0
0
0
0
0
0
0
0
0
0
0
0
0
0
0
0
0
0
0
0
0
0
0
0
0
0
0
0
0
0
0
0
11111111
0
0
0
0
0
0
0
0
0
0
0
0
0
0
11111111
0
0
0
0
0
0
0
11111101
11111011
11111110
11111111
11111111
11111101
11111011
11111100
11111110
11111111
0
0
0
0
0
0
0
0
0
0
0
0
0
11111111
11111110
11111110
11111011
11111010
11111001
11111101
0
0
10
1
11111111
11111111
11111110
11111111
0
11111111
11111111
0
0
0
0
0
0
0
0
0
0
11
101
1
11111101
11111010
11110111
11111010
11111100
0
10
11
1
11111111
10
0
0
11111111
11111111
0
0
0
0
0
0
0
0
0
11111111
10
100
0
11111110
0
11110101
11111010
11111000
11111111
1000
110
101
101
100
0
11111101
11111101
11111110
0
0
0
0
0
0
0
1
1
10
11111111
11
1
11111100
11111101
11111100
11110111
11111100
11
100
11
11
100
10
10
0
11111111
11111111
0
0
0
0
0
0
0
1
0
10
10
101
11
100
10
11111001
11110110
11111110
0
101
1
1
11111111
11111101
1
0
11111101
11111111
11111111
0
0
0
0
0
1
100
0
0
1
10
0
11111111
11
11111011
11111001
1
111
101
11
1
11111101
0
0
11111101
11111110
11111110
11111111
0
0
0
0
11111111
10
111
11
11111111
1
10
11
11
10
11111110
11110110
11111101
11
110
11111101
10
0
101
11111110
11111101
11111110
0
0
0
0
0
1
1
100
1000
11
100
11111101
111
10
100
11111111
11111010
11110101
0
100
10
11111101
1
10
10
11111111
0
11111111
0
0
0
0
0
1
1
11
11
0
110
100
110
10
11111110
11111001
11110101
11111010
1
11
100
0
1
1
0
11111110
11111101
0
0
0
0
0
0
0
0
1
10
100
0
10
0
11111011
11110111
11110110
11111101
11111111
11111100
0
100
0
11111101
11111110
11111010
11111101
11111101
11111111
0
0
0
0
0
0
11111111
11111111
0
11111111
11111111
11111001
11110111
11111001
11111001
11111000
11111010
11111110
11111111
1
1
11111100
1
11111110
11111010
0
0
11111110
0
0
0
0
0
0
11111110
11111010
11111000
11111001
11110111
11101111
11110010
11111011
0
11111101
11111101
11111010
0
11111111
11111110
11111110
11111111
0
0
0
11111110
11111110
0
0
0
0
0
0
11111110
11110111
11110011
11110101
11110101
11110010
11111011
1
0
0
11111100
11111100
11
0
10
100
101
10
100
0
11111110
0
0
0
0
0
0
0
11111110
11111011
11110111
11110110
11111000
11111101
0
100
110
11
11111001
11111101
11111110
11111101
0
100
11111111
1
0
0
0
0
1
0
0
0
0
0
11111110
11111110
11111101
11111001
1
11111111
101
10
101
1
11111101
11111111
11111111
0
11111110
0
11111111
11111110
1
0
1
1
0
0
0
0
0
0
11111110
0
11111111
0
0
0
1
0
110
1
11111011
11111111
0
11
0
11111110
0
0
0
11111111
1
0
0
0
0
0
0
0
0
0
11111110
10
0
110
0
0
100
10
11111110
11111101
11111110
11111101
1
11111110
0
0
0
0
11
1
0
0
0
0
0
0
0
0
0
0
0
100
0
11
10
11
11
0
0
0
101
11111110
0
0
11111111
11111111
11
1
0
0
0
0
0
0
11111111
0
10
10
11
101
10
11111101
0
11111111
10
1
1
11111111
0
11111111
1
0
1
0
0
0
0
0
0
0
0
0
11111111
11111111
0
1
0
11111111
10
10
11111111
0
0
11111110
0
11111111
11111111
1
11
0
1
11111111
0
0
0
0
0
0
0
0
0
0
0
11111111
11111110
11111111
11111110
11111110
0
0
10
0
0
0
100
10
1
0
10
0
0
0
0
0
0
0
0
0
0
1
0
11111110
11111111
0
0
0
0
101
1
11111111
0
11111111
10
1
11111110
11111111
11111111
0
0
0
0
0
0
0
0
0
0
11111111
11111110
11111111
0
0
0
11111110
11111100
11111101
0
0
0
11111111
0
11111110
0
11111111
11111111
0
0
0
0
0
0
0
0
0
0
0
0
0
0
0
0
0
0
0
0
0
11111111
0
0
11111111
0
0
0
0
0
0
0
0
0
