0
0
0
0
0
0
0
0
0
0
0
0
0
0
0
0
0
0
0
0
0
0
0
0
0
0
0
0
0
0
0
0
0
0
0
0
0
0
0
0
0
0
0
1
0
0
0
0
0
0
0
0
0
0
0
0
0
0
0
0
0
0
0
0
0
0
0
0
0
0
0
0
1
11
10
10
1
1
0
0
0
0
0
0
0
0
0
0
0
1
1
1
0
11111111
0
11111111
11111111
0
10
100
1
11
100
11
11
100
1
0
0
0
0
0
0
0
0
0
0
1
0
1
10
0
0
0
0
11111101
11111110
0
0
11
11
0
10
100
1
1
1
0
0
0
0
0
0
0
0
0
10
10
0
10
1
1
0
11111100
10
11111111
11111110
100
0
11
11
11111111
0
11111110
0
1
0
0
0
0
0
0
0
0
0
10
10
11111111
11111111
100
10
1
11111101
11111101
11111111
10
0
1
100
1
1
0
0
10
0
0
0
0
0
0
0
11111111
1
11111110
11111100
11111110
1
1
101
0
11111100
0
0
0
0
11111100
11111100
0
11111101
10
11
11
0
0
0
0
1
10
0
11111111
10
11111111
0
10
0
11
111
101
11111010
11111111
0
11111110
1
11111110
11111110
1
11111111
1
101
11
0
0
0
0
0
10
1
11111011
0
0
1
11111110
11111110
11111101
11111000
11
11111111
11111100
11111101
11111110
10
11
100
11
1
10
11
11
0
0
0
0
0
11
1
11111010
11111100
11111001
11110111
11111000
11110100
11111100
0
11111101
11
11111101
11111110
11111110
1
0
1001
11
100
100
0
0
0
0
0
0
0
10
10
11111101
11111110
11111101
11111100
11111111
1
0
1010
1010
11
11111110
1
100
11111101
0
101
11
11
101
10
0
1
0
0
0
0
10
100
100
110
10
1
111
1111
10101
1101
10010
1011
111
11
1
0
10
100
1
100
1000
1
11111111
0
0
0
0
0
11
1000
1001
1110
10100
10011
10110
10011
1011
11
10
100
100
1
11
101
1
1
10
10
11111111
11111100
11111110
11111111
11111111
0
0
0
11
1000
1110
10100
10101
10100
1110
100
11111110
11111110
10
0
11
11
11111111
11111110
11111110
10
0
11111111
11111101
11111001
11111100
11111110
0
0
0
0
10
110
1011
1010
101
0
11111111
11111111
11111101
11111111
11111001
1
11
11111101
0
101
10
11
11111111
0
11111110
11111101
11111101
11111111
0
0
0
0
1
1000
101
0
11111011
11111111
11111001
11111011
11111010
11111111
11110111
11111111
10
0
10
10
11111111
0
11111111
0
11111110
0
11111110
11111110
0
0
0
0
0
10
11111111
11111100
11111101
11111101
0
11111101
0
11111011
11111101
11111101
11111111
0
10
11
11
100
0
0
0
11111111
11111101
11111111
0
0
0
0
11111111
11111111
11111101
1
0
101
11
0
0
11111011
11111111
11111011
0
0
1
11111110
0
101
0
0
11111111
11111011
11111101
0
0
0
0
0
0
11111101
11111110
11111110
11111100
11111111
11111100
0
11111101
0
11110111
11111110
1
11111111
0
11
0
0
0
1
0
11111101
11111101
0
0
0
0
0
11111101
11111010
11111101
11111000
11111100
11111010
11111100
11111111
11111101
11111001
11111110
0
0
11111101
1
10
11111111
11111111
1
10
0
11111101
11111111
0
0
0
0
11111111
11111101
11111110
11111100
11111111
11
0
11111110
11111101
11111110
11111110
11111111
11111101
11111110
11111111
0
11111101
11111110
1
0
0
11111101
11111100
11111111
0
0
0
0
0
11111111
0
11111011
10
1
11111110
11111110
0
11111111
10
1
11111111
100
0
10
11111011
11111100
11111110
11111100
11111101
11111110
11111110
11111110
0
0
0
0
0
0
0
11111110
0
0
0
11111110
10
11111110
11111100
11111110
0
0
0
11111111
11111111
0
0
11111011
11111100
11111101
11111110
11111110
0
0
0
0
0
0
0
0
10
100
11
1
11
11111110
11
101
0
0
10
11111010
11111110
11111111
0
11111110
0
11111111
11111110
11111111
0
0
0
0
0
0
0
0
0
0
0
11
101
110
0
10
11111111
11111100
11111011
11111101
11111111
1
11
11
1
0
0
0
0
0
0
0
0
0
0
1
1
0
0
0
0
1
1
0
0
0
1
0
1
0
10
10
0
0
0
0
0
0
0
0
0
0
0
0
0
0
0
0
0
0
0
0
0
0
0
0
0
0
1
1
1
0
0
0
0
0
