0
0
0
0
0
0
0
0
0
0
0
0
0
0
0
0
0
0
0
0
0
0
0
0
0
0
0
0
0
0
0
0
0
0
0
0
0
0
0
0
0
0
0
0
0
0
0
0
0
0
0
0
0
0
0
0
0
0
0
0
0
0
0
0
0
0
0
0
0
1
0
0
0
0
0
0
0
0
0
0
0
0
0
0
0
0
0
0
0
0
0
0
0
0
0
0
0
0
11111110
11111101
11111111
0
1
1
0
11111111
11111111
0
0
0
0
0
0
0
0
0
0
0
0
0
1
0
1
0
11111111
0
11111100
11111111
0
1
11
10
0
0
0
11111111
11111111
11111111
0
0
0
0
0
0
0
1
10
10
10
0
1
11111111
11111110
0
0
1
10
11
1000
1000
100
10
11
10
0
0
0
0
0
0
0
0
0
1
1
0
11111110
11111110
11111110
11111011
11111101
11
101
11
1
1
111
11
10
1
1
1
0
0
0
0
0
0
0
0
0
0
11111110
11111100
11111001
11111010
11111000
11111111
0
0
101
10
10
0
1
11
0
0
10
0
0
0
0
0
0
0
0
0
0
0
11111110
11111011
11111000
11111110
11111011
11111011
11
11
101
1
11
100
11111110
101
1
0
11
0
0
0
0
0
0
0
0
0
0
11111111
11111111
11111110
11111110
11111110
11111011
11111011
11111110
101
0
10
100
0
10
0
0
11111110
0
10
1
10
0
0
0
0
0
0
0
11111101
11111110
11111100
11111111
11111110
11111101
11111000
11111101
11
0
10
11
0
11111111
11111010
0
11111100
0
0
1
0
0
0
0
0
0
0
11111111
11111101
11111111
11111101
11111100
11111010
11111010
11111000
11111111
100
0
101
11111100
11111010
11111011
11111010
11111100
11111101
0
11111111
11111110
0
0
0
0
0
0
0
11111111
11111101
1
1
11111110
1
0
11111010
0
11
111
11
11111011
11111100
11111100
11111000
11111001
11111101
11111111
11111110
11111111
0
0
0
0
0
0
0
11111111
0
11
0
10
1
11111100
11111110
10
10
101
11111011
11111010
11111110
11111101
11111001
11111100
11111100
11111001
11111110
0
0
0
0
0
0
0
0
11111111
1
0
0
1
1
11111111
0
10
11
11
11110111
11111001
11111010
11111100
11111110
11111101
0
11111011
11111110
0
0
0
0
0
0
0
0
0
1
0
0
0
0
11111011
11111101
10
11
1
11111011
11111110
11111100
11111110
11111011
11111100
0
11111101
0
1
0
0
0
0
0
0
0
1
0
10
11
1
100
0
11111111
0
1
10
10
0
11111011
11111010
11111101
11111001
11111110
11111111
0
10
0
0
0
0
0
0
0
1
10
0
1
11
0
10
0
11111101
11111100
0
11
10
0
11111011
0
11111100
11111111
11111110
0
0
0
0
0
0
0
0
0
10
1
11111111
0
10
0
11111110
11111011
11111010
11111100
11111100
101
101
101
100
100
0
1
11111111
11111111
0
0
0
0
0
0
0
1
10
0
11111111
0
10
101
11111101
11111011
11111010
1
11111111
100
111
1001
1001
11
110
11
10
10
1
0
0
0
0
0
0
1
11
1
1
10
110
10
11111110
0
1
11
0
10
100
111
111
11
101
10
11
11
1
0
0
0
0
0
0
1
10
0
10
101
11
11111111
11
1
11
101
0
11111111
11111110
0
100
0
1
100
100
10
0
0
0
0
0
0
0
1
1
1
11
100
10
1
10
100
0
100
0
100
0
1
10
0
11
11
1
0
0
0
0
0
0
0
0
1
1
1
11
11
0
110
11
0
11111111
0
1
1
11
100
0
0
1
11111111
0
0
1
0
0
0
0
0
0
0
0
0
10
10
1
100
0
11111110
0
11111110
11111010
11111010
11111111
0
11111110
11111110
0
1
0
0
0
0
0
0
0
0
0
0
0
11111111
0
0
1
11
0
0
10
0
11111100
11111001
11111011
11111100
11111110
0
11111111
0
0
0
0
0
0
0
0
0
0
0
0
0
0
11111111
11111111
11111111
0
0
0
11111111
11111110
11111111
0
11111111
11111111
0
0
0
0
0
0
0
0
0
0
0
0
0
0
0
0
0
0
0
0
0
0
0
0
0
0
0
0
0
0
0
0
0
0
0
0
0
