0
0
0
0
0
0
0
0
0
0
0
0
0
0
0
0
0
0
0
0
0
0
0
0
0
0
0
0
0
0
0
0
0
0
0
0
0
0
0
0
0
0
0
0
0
0
0
0
0
0
0
0
0
0
0
0
0
0
0
0
0
0
0
0
0
0
0
0
0
0
0
0
11111111
11111111
11111111
11111110
11111111
11111111
0
0
0
0
0
0
0
0
0
0
0
0
0
0
0
0
10
10
100
1
11111111
11111111
11111110
0
0
11111110
0
11111111
0
0
0
0
0
0
0
0
0
0
0
10
10
10
100
11
100
10
110
10
11
1
11111111
11111011
11111101
11111111
11111110
11111110
11111101
11111111
1
0
0
0
0
0
0
0
1
10
11
11
100
11
0
10
10
11111011
10
0
0
0
11111110
1
1
11111101
11111100
11111110
0
0
0
0
0
0
0
0
0
0
100
10
1
100
1
11111111
0
11111111
11111111
10
11111011
10
0
11111100
11
11
11111111
0
0
0
0
0
0
0
0
0
10
1
1
1
10
1
11111101
11111110
10
0
11111101
0
0
11111111
0
11111010
11111011
11111110
0
0
11111111
0
0
0
0
0
0
1
1
1
1
100
1
1
1
0
11111111
1
11111101
11111111
11111101
0
11111111
100
0
0
111
11
0
0
1
0
0
0
0
0
0
0
1
11111111
11111111
0
1
11111111
11111110
0
101
0
11111110
0
110
1001
11
111
1101
1000
10
1
0
0
0
0
0
0
11111111
11111110
11111111
11111110
11111110
11111101
11111110
11111010
0
1000
1001
10
1
11
1000
101
10
110
1001
1001
100
1
0
0
0
0
0
0
0
11111101
11111100
11111110
11111110
11111111
11111011
11111111
0
110
1010
101
11111110
11111101
11111111
11111101
11111111
0
11
1
11
100
1
0
0
0
0
11111111
11111100
11111100
11111110
0
11111100
11111100
0
11111100
0
1000
1100
110
0
11111101
11111101
11111101
11111101
0
11111110
11111011
0
100
1
0
0
0
0
11111111
11111010
11111010
1
0
11111111
11111110
11111110
11111101
11111011
11
111
100
0
11111100
1
0
11111110
0
11111110
11111011
0
100
1
0
0
0
0
0
11111100
11111010
11111110
11111111
11111101
11111111
0
0
0
100
1011
1001
11111111
11111011
11111011
1
11111100
11111111
11111001
11111101
10
10
1
0
0
0
0
1
11111111
11111101
0
11111101
11111110
0
11111100
11111111
0
101
1110
1011
0
11111011
11111100
0
11111101
11111101
11111111
0
11
10
1
0
0
0
0
0
0
11111101
0
11111101
11111011
0
1
11111101
0
1000
1011
101
11111101
11111011
1
11111111
11111110
11111111
11111111
1
10
1
1
0
0
0
0
0
10
1
11111110
11111111
11111110
0
11111111
11111101
0
1001
1011
11
0
11111100
11111101
0
11111110
0
11111100
1
10
1
0
0
0
0
0
0
10
11
0
1
0
11111111
11111111
11111111
0
1010
111
1
11111001
11111100
11111110
11111110
11111110
0
0
1
100
1
0
0
0
0
0
0
0
0
0
0
0
11111110
0
11111101
11111110
111
1011
1
11111100
0
1
11111101
0
1
1
10
0
0
0
0
0
0
0
1
0
11111100
0
11
11
11111110
11
10
11
101
10
11111110
11111100
11111110
0
0
1
110
10
1
11111111
0
0
0
0
0
0
1
1
11111111
11111111
0
0
100
11111111
11111111
0
1
0
11111100
0
11
1
1
11111101
10
0
0
11111110
0
0
0
0
0
0
1
11
1
10
0
1
100
0
100
1
0
11111011
11111101
11111010
11111011
11111110
0
1
0
0
0
11111111
0
0
0
0
0
0
0
10
1
0
1
0
1
11
11
11111111
1
11111001
11111110
11111101
11111100
1
11111111
11111110
11111111
1
0
0
0
0
0
0
0
0
0
1
0
1
100
11
11111110
11111111
11111111
11111111
1
110
11111111
11111100
11111010
11111100
11111101
11111011
11111111
11111111
0
0
0
0
0
0
0
0
0
0
1
10
11
10
0
1
11111101
11111111
0
0
11111111
11111110
11111101
11111010
11111001
11111011
11111101
11111111
0
0
0
0
0
0
0
0
0
0
0
0
0
11111111
11111110
11111111
11111111
11111111
0
11111110
11111101
11111110
11111111
11111110
11111101
11111101
11111111
0
0
0
0
0
0
0
0
0
0
0
0
0
0
0
0
0
0
0
0
0
0
0
0
0
0
0
0
0
0
0
0
0
0
