0
0
0
0
0
0
0
0
0
0
0
0
0
0
0
0
0
0
0
0
0
0
0
0
0
0
0
0
0
0
0
0
0
0
0
0
0
0
0
0
0
0
0
0
0
0
0
0
0
0
0
0
0
0
0
0
0
0
0
0
0
0
0
0
0
0
0
0
0
0
11111111
11111111
0
0
0
0
0
0
0
0
0
0
0
0
0
0
0
0
0
0
0
11111111
0
0
0
1
1
10
1
1
0
0
11111111
11111110
11111111
11111101
11111111
0
0
0
0
0
0
0
0
0
0
0
0
0
0
10
10
0
11111111
0
11111110
11
1
10
0
0
11111110
11111100
11111100
11111101
11111110
0
0
0
0
0
0
0
1
10
10
10
101
10
11111110
11111111
0
0
11111110
1
10
1
1
10
0
0
11111110
11111101
11111110
0
0
0
0
0
0
1
11
100
11
0
10
11111101
0
11111110
0
11111101
11111110
11111011
11111011
0
11111110
11111011
11111111
101
0
11111101
11111101
11111111
0
0
0
0
0
1
11
10
100
11
11111110
10
0
11111110
0
11111111
11111101
11111101
11111011
11111101
0
0
11111111
11111111
0
0
11111111
0
0
0
0
0
0
1
10
1
1
0
101
11
11
11111100
101
11111110
1
11111111
0
11111110
11
11111101
1
11111111
0
1
11111111
11111111
0
0
0
0
0
10
10
0
100
1
0
1
0
11
110
100
100
10
10
1
1
0
0
11111100
11111111
0
0
11111111
0
0
0
0
1
10
0
11111111
11111111
11111101
0
11
111
1011
101
1001
111
11
101
11
11
0
10
10
110
10
11111111
11111111
0
0
0
0
11
100
101
11111110
11111011
11111101
11111011
0
11111111
100
101
11
100
11111101
11111011
100
101
1001
101
10
1
0
0
11111111
0
0
0
0
1
100
10
0
0
1
0
0
11
100
101
0
11111110
11111001
11111111
0
0
11111101
1
11111100
100
1
1
0
0
0
0
0
1
10
0
110
111
10
1
0
100
110
100
11111011
11111001
11110110
11111011
11111110
11111101
11111000
11111101
100
10
11
10
0
0
0
0
0
1
0
11111101
11
11
0
100
100
11
101
0
11110110
11111000
11111010
11111001
1
11111100
0
11111101
1
100
111
101
10
0
0
0
0
0
0
11111111
1
10
11
11111110
11111101
11111111
11111010
11111010
11110011
11111010
11111110
11111000
1
1
101
100
10
11111111
10
101
0
0
0
0
0
0
0
0
1
11111101
0
0
11
1
11111100
11110111
11110101
11111100
11111011
11111000
0
11111110
101
100
10
1
1
1
0
0
0
0
0
0
0
0
0
11111101
1
1
0
0
11111110
11111011
11111011
11111111
11111011
11111000
0
11111101
11111111
0
101
100
10
1
0
0
0
0
0
0
11111110
11111111
11111110
11111110
0
0
1
0
11111011
11111000
11110111
11111010
11111100
11111100
10
0
11111011
11111100
101
101
0
0
0
0
0
0
0
0
11111111
1
0
11111110
11111110
11111101
11111111
11111111
0
0
11111101
11111100
11111011
11111110
100
11111111
11111110
0
1
1
11111100
11111111
0
0
0
0
0
0
0
10
1
11111111
11
0
11111110
0
101
10
100
1
11111110
11111011
11111111
0
0
0
0
11111111
11111101
11111110
11111111
0
0
0
0
0
0
0
0
0
1
101
11
10
101
10
11
11111110
11111111
0
11111010
0
11111110
11111110
11111110
11111100
11111101
0
0
0
0
0
0
0
0
11111111
11111110
11111111
11111111
11
100
1
11111110
10
0
11111111
11
11111111
0
10
11111111
11111101
11111101
11111110
11111101
11111111
0
0
0
0
0
0
0
0
0
0
0
0
101
101
10
1
0
1
1
11111111
11
0
11111101
11111001
11111100
11111101
11111110
0
0
0
0
0
0
0
0
0
1
10
1
11111111
11111111
0
11111101
0
10
0
1
10
11
1
11111111
11111011
11111111
11111111
0
0
0
0
0
0
0
0
0
0
0
11111111
0
0
11111111
0
11
100
0
1
0
101
1
1
10
0
11111111
0
0
0
0
0
0
0
0
0
0
0
0
0
0
0
0
0
0
0
10
1
0
1
10
11
11
0
0
0
0
0
0
0
0
0
0
0
0
0
0
0
0
0
0
0
0
0
0
0
11111111
0
0
0
0
0
0
0
0
0
0
0
0
